{
  "version": "1.0",
  "truncation": {
    "direction": "Right",
    "max_length": 256,
    "strategy": "LongestFirst",
    "stride": 0
  },
  "padding": null,
  "added_tokens": [
    {
      "id": 0,
      "content": "[PAD]",
      "single_word": false,
      "lstrip": false,
      "rstrip": false,
      "normalized": false,
      "special": true
    },
    {
      "id": 1,
      "content": "[UNK]",
      "single_word": false,
      "lstrip": false,
      "rstrip": false,
      "normalized": false,
      "special": true
    },
    {
      "id": 2,
      "content": "[CLS]",
      "single_word": false,
      "lstrip": false,
      "rstrip": false,
      "normalized": false,
      "special": true
    },
    {
      "id": 3,
      "content": "[SEP]",
      "single_word": false,
      "lstrip": false,
      "rstrip": false,
      "normalized": false,
      "special": true
    },
    {
      "id": 4,
      "content": "[MASK]",
      "single_word": false,
      "lstrip": false,
      "rstrip": false,
      "normalized": false,
      "special": true
    }
  ],
  "normalizer": {
    "type": "NFKC"
  },
  "pre_tokenizer": {
    "type": "ByteLevel",
    "add_prefix_space": false,
    "trim_offsets": true,
    "use_regex": true
  },
  "post_processor": {
    "type": "TemplateProcessing",
    "single": [
      {
        "SpecialToken": {
          "id": "[CLS]",
          "type_id": 0
        }
      },
      {
        "Sequence": {
          "id": "A",
          "type_id": 0
        }
      },
      {
        "SpecialToken": {
          "id": "[SEP]",
          "type_id": 0
        }
      }
    ],
    "pair": [
      {
        "Sequence": {
          "id": "A",
          "type_id": 0
        }
      },
      {
        "Sequence": {
          "id": "B",
          "type_id": 1
        }
      }
    ],
    "special_tokens": {
      "[CLS]": {
        "id": "[CLS]",
        "ids": [
          2
        ],
        "tokens": [
          "[CLS]"
        ]
      },
      "[SEP]": {
        "id": "[SEP]",
        "ids": [
          3
        ],
        "tokens": [
          "[SEP]"
        ]
      }
    }
  },
  "decoder": {
    "type": "ByteLevel",
    "add_prefix_space": true,
    "trim_offsets": true,
    "use_regex": true
  },
  "model": {
    "type": "BPE",
    "dropout": null,
    "unk_token": "[UNK]",
    "continuing_subword_prefix": null,
    "end_of_word_suffix": null,
    "fuse_unk": false,
    "byte_fallback": true,
    "ignore_merges": false,
    "vocab": {
      "[PAD]": 0,
      "[UNK]": 1,
      "[CLS]": 2,
      "[SEP]": 3,
      "[MASK]": 4,
      "!": 5,
      "\"": 6,
      "#": 7,
      "$": 8,
      "%": 9,
      "&": 10,
      "'": 11,
      "(": 12,
      ")": 13,
      "*": 14,
      "+": 15,
      ",": 16,
      "-": 17,
      ".": 18,
      "/": 19,
      "0": 20,
      "1": 21,
      "2": 22,
      "3": 23,
      "4": 24,
      "5": 25,
      "6": 26,
      "7": 27,
      "8": 28,
      "9": 29,
      ":": 30,
      ";": 31,
      "<": 32,
      "=": 33,
      ">": 34,
      "?": 35,
      "@": 36,
      "A": 37,
      "B": 38,
      "C": 39,
      "D": 40,
      "E": 41,
      "F": 42,
      "G": 43,
      "H": 44,
      "I": 45,
      "J": 46,
      "K": 47,
      "L": 48,
      "M": 49,
      "N": 50,
      "O": 51,
      "P": 52,
      "Q": 53,
      "R": 54,
      "S": 55,
      "T": 56,
      "U": 57,
      "V": 58,
      "W": 59,
      "X": 60,
      "Y": 61,
      "Z": 62,
      "[": 63,
      "\\": 64,
      "]": 65,
      "^": 66,
      "_": 67,
      "`": 68,
      "a": 69,
      "b": 70,
      "c": 71,
      "d": 72,
      "e": 73,
      "f": 74,
      "g": 75,
      "h": 76,
      "i": 77,
      "j": 78,
      "k": 79,
      "l": 80,
      "m": 81,
      "n": 82,
      "o": 83,
      "p": 84,
      "q": 85,
      "r": 86,
      "s": 87,
      "t": 88,
      "u": 89,
      "v": 90,
      "w": 91,
      "x": 92,
      "y": 93,
      "z": 94,
      "{": 95,
      "|": 96,
      "}": 97,
      "~": 98,
      "¡": 99,
      "¢": 100,
      "£": 101,
      "¤": 102,
      "¥": 103,
      "¦": 104,
      "§": 105,
      "¨": 106,
      "©": 107,
      "ª": 108,
      "«": 109,
      "¬": 110,
      "®": 111,
      "¯": 112,
      "°": 113,
      "±": 114,
      "²": 115,
      "³": 116,
      "´": 117,
      "µ": 118,
      "¶": 119,
      "·": 120,
      "¸": 121,
      "¹": 122,
      "º": 123,
      "»": 124,
      "¼": 125,
      "½": 126,
      "¾": 127,
      "¿": 128,
      "À": 129,
      "Á": 130,
      "Â": 131,
      "Ã": 132,
      "Ä": 133,
      "Å": 134,
      "Æ": 135,
      "Ç": 136,
      "È": 137,
      "É": 138,
      "Ê": 139,
      "Ë": 140,
      "Ì": 141,
      "Í": 142,
      "Î": 143,
      "Ï": 144,
      "Ð": 145,
      "Ñ": 146,
      "Ò": 147,
      "Ó": 148,
      "Ô": 149,
      "Õ": 150,
      "Ö": 151,
      "×": 152,
      "Ø": 153,
      "Ù": 154,
      "Ú": 155,
      "Û": 156,
      "Ü": 157,
      "Ý": 158,
      "Þ": 159,
      "ß": 160,
      "à": 161,
      "á": 162,
      "â": 163,
      "ã": 164,
      "ä": 165,
      "å": 166,
      "æ": 167,
      "ç": 168,
      "è": 169,
      "é": 170,
      "ê": 171,
      "ë": 172,
      "ì": 173,
      "í": 174,
      "î": 175,
      "ï": 176,
      "ð": 177,
      "ñ": 178,
      "ò": 179,
      "ó": 180,
      "ô": 181,
      "õ": 182,
      "ö": 183,
      "÷": 184,
      "ø": 185,
      "ù": 186,
      "ú": 187,
      "û": 188,
      "ü": 189,
      "ý": 190,
      "þ": 191,
      "ÿ": 192,
      "Ā": 193,
      "ā": 194,
      "Ă": 195,
      "ă": 196,
      "Ą": 197,
      "ą": 198,
      "Ć": 199,
      "ć": 200,
      "Ĉ": 201,
      "ĉ": 202,
      "Ċ": 203,
      "ċ": 204,
      "Č": 205,
      "č": 206,
      "Ď": 207,
      "ď": 208,
      "Đ": 209,
      "đ": 210,
      "Ē": 211,
      "ē": 212,
      "Ĕ": 213,
      "ĕ": 214,
      "Ė": 215,
      "ė": 216,
      "Ę": 217,
      "ę": 218,
      "Ě": 219,
      "ě": 220,
      "Ĝ": 221,
      "ĝ": 222,
      "Ğ": 223,
      "ğ": 224,
      "Ġ": 225,
      "ġ": 226,
      "Ģ": 227,
      "ģ": 228,
      "Ĥ": 229,
      "ĥ": 230,
      "Ħ": 231,
      "ħ": 232,
      "Ĩ": 233,
      "ĩ": 234,
      "Ī": 235,
      "ī": 236,
      "Ĭ": 237,
      "ĭ": 238,
      "Į": 239,
      "į": 240,
      "İ": 241,
      "ı": 242,
      "Ĳ": 243,
      "ĳ": 244,
      "Ĵ": 245,
      "ĵ": 246,
      "Ķ": 247,
      "ķ": 248,
      "ĸ": 249,
      "Ĺ": 250,
      "ĺ": 251,
      "Ļ": 252,
      "ļ": 253,
      "Ľ": 254,
      "ľ": 255,
      "Ŀ": 256,
      "ŀ": 257,
      "Ł": 258,
      "ł": 259,
      "Ń": 260,
      "Ġ$": 261,
      "Ġt": 262,
      "Ġa": 263,
      "Ġth": 264,
      "in": 265,
      "er": 266,
      "le": 267,
      "Ġo": 268,
      "Ġthe": 269,
      "Ġs": 270,
      "Ġp": 271,
      "at": 272,
      "Ġc": 273,
      "re": 274,
      "Ġ\\": 275,
      "en": 276,
      "Ġd": 277,
      "is": 278,
      "Ġof": 279,
      "Ġan": 280,
      "an": 281,
      "it": 282,
      "ro": 283,
      "Ġb": 284,
      "on": 285,
      "Ġin": 286,
      "Ġn": 287,
      "es": 288,
      "Ġand": 289,
      "al": 290,
      "$.": 291,
      "$,": 292,
      "Ġe": 293,
      "os": 294,
      "Ġf": 295,
      "ve": 296,
      "ri": 297,
      "um": 298,
      "te": 299,
      "et": 300,
      "Ġw": 301,
      "ac": 302,
      "Ġthat": 303,
      "or": 304,
      "ts": 305,
      "qu": 306,
      "Ġm": 307,
      "_{": 308,
      "Ġis": 309,
      "ar": 310,
      "Ġ+": 311,
      "ers": 312,
      "Pro": 313,
      "ti": 314,
      "Ġ=": 315,
      "ble": 316,
      "Ġ$\\": 317,
      "Ġl": 318,
      "ang": 319,
      "ch": 320,
      "ir": 321,
      "ll": 322,
      "as": 323,
      "Ġre": 324,
      "Ġbe": 325,
      "Ġto": 326,
      "Ġnum": 327,
      "un": 328,
      "do": 329,
      "$$": 330,
      "ec": 331,
      "angle": 332,
      "ent": 333,
      "Ġnumb": 334,
      "^{": 335,
      "Ġon": 336,
      "Ġpo": 337,
      "ed": 338,
      "AB": 339,
      "Ġpos": 340,
      "id": 341,
      "Ġ1": 342,
      "Ġare": 343,
      "om": 344,
      "blem": 345,
      "Ġsu": 346,
      "Ġh": 347,
      "Problem": 348,
      "}$": 349,
      "Ġdi": 350,
      "rac": 351,
      "Ġinte": 352,
      "iti": 353,
      "ing": 354,
      "Ġinteg": 355,
      "}{": 356,
      "ly": 357,
      "Ġde": 358,
      "irc": 359,
      "frac": 360,
      "Ġ2": 361,
      "Ġv": 362,
      "am": 363,
      "ĠÐ": 364,
      "Ġg": 365,
      "Ġpoin": 366,
      "ith": 367,
      "Let": 368,
      "Ġle": 369,
      "Ġpositi": 370,
      "ine": 371,
      "Ġsuch": 372,
      "ad": 373,
      "Ġ(": 374,
      "gh": 375,
      "ĠA": 376,
      "Ġall": 377,
      "ere": 378,
      "Ġat": 379,
      "Ġtri": 380,
      "Ġcon": 381,
      "Ġwith": 382,
      "Ġse": 383,
      "dots": 384,
      "Ġfor": 385,
      "Ġqu": 386,
      "Ð°": 387,
      "ol": 388,
      "Ġpositive": 389,
      "Ġwh": 390,
      "Ġi": 391,
      "Ġy": 392,
      "ow": 393,
      "Ð¾": 394,
      "Ġnumber": 395,
      "ge": 396,
      "ach": 397,
      "ABC": 398,
      "he": 399,
      "ul": 400,
      "ic": 401,
      "im": 402,
      "Ġex": 403,
      "ur": 404,
      "Ġx": 405,
      "ĠB": 406,
      "Ġtriangle": 407,
      "Ġcirc": 408,
      "Prove": 409,
      "th": 410,
      "ind": 411,
      "Ġun": 412,
      "Ġint": 413,
      ")$": 414,
      "Ġnumbers": 415,
      "mat": 416,
      "Ðµ": 417,
      "ay": 418,
      "ĠC": 419,
      "Ġ-": 420,
      "ght": 421,
      "math": 422,
      "ce": 423,
      "are": 424,
      "ĠS": 425,
      "ĠT": 426,
      "Ġintegers": 427,
      "Ġinteger": 428,
      "ver": 429,
      "ÑĤ": 430,
      "ion": 431,
      "ĠF": 432,
      "ot": 433,
      "Ġpoint": 434,
      "ĠD": 435,
      "Ð¸": 436,
      "ĠProve": 437,
      "wo": 438,
      "ft": 439,
      "20": 440,
      "les": 441,
      "ist": 442,
      "ra": 443,
      "tion": 444,
      "eg": 445,
      "right": 446,
      "Ġ$(": 447,
      "Ġeach": 448,
      "us": 449,
      "Ġtwo": 450,
      "ct": 451,
      "Ġ3": 452,
      "Ġthere": 453,
      "Ġque": 454,
      "Ð½": 455,
      "Ġone": 456,
      "erm": 457,
      "BC": 458,
      "ich": 459,
      "Ġpl": 460,
      "Ġpoints": 461,
      "il": 462,
      "Ġby": 463,
      "ta": 464,
      "ÑĢ": 465,
      "Ġit": 466,
      "Ã©": 467,
      "Ġif": 468,
      "Ġor": 469,
      "ut": 470,
      "Ġpro": 471,
      "si": 472,
      "00": 473,
      "ide": 474,
      "ng": 475,
      "el": 476,
      "ĠI": 477,
      "Ġal": 478,
      "Ġpar": 479,
      "ersec": 480,
      "bb": 481,
      "Ġres": 482,
      "Ġk": 483,
      "},": 484,
      "ma": 485,
      "Ġst": 486,
      "}+": 487,
      "circ": 488,
      "Ġequ": 489,
      "Ġ|": 490,
      "rt": 491,
      "Ġreal": 492,
      "Ġintersec": 493,
      "Ġen": 494,
      "mathbb": 495,
      "quare": 496,
      "Ġr": 497,
      "rom": 498,
      "ĠP": 499,
      "Ġcan": 500,
      "Ġz": 501,
      "Ġco": 502,
      "qrt": 503,
      "sqrt": 504,
      "}$.": 505,
      "Ġsquare": 506,
      "Ġcom": 507,
      "Ñģ": 508,
      "Ġline": 509,
      "pec": 510,
      "Ġch": 511,
      "up": 512,
      "Ġfrom": 513,
      "lo": 514,
      "Ġdiv": 515,
      "ĠThe": 516,
      "AC": 517,
      "Ġfo": 518,
      "iv": 519,
      "Ġwhich": 520,
      "tive": 521,
      "ation": 522,
      "Ġcol": 523,
      "left": 524,
      "ĠE": 525,
      "est": 526,
      "ĠLet": 527,
      "Ġro": 528,
      "Ġrespec": 529,
      "ldots": 530,
      "Ġas": 531,
      "ue": 532,
      "ents": 533,
      "Ð»": 534,
      "to": 535,
      "Ġper": 536,
      "Ġval": 537,
      "Ġla": 538,
      "ame": 539,
      "ite": 540,
      "end": 541,
      "Ġany": 542,
      "Ġbo": 543,
      "ff": 544,
      "em": 545,
      "res": 546,
      "eterm": 547,
      "Ġpossi": 548,
      "Ġdo": 549,
      "Ġmo": 550,
      "ard": 551,
      "Ġcircle": 552,
      "Ġhas": 553,
      "st": 554,
      "Ġ0": 555,
      "}\\": 556,
      "ose": 557,
      "Ġdist": 558,
      "Ġ4": 559,
      "ig": 560,
      "mes": 561,
      "Ġseg": 562,
      "gon": 563,
      "Ġha": 564,
      "Ġj": 565,
      "Ġpossible": 566,
      "Ġpa": 567,
      "}$,": 568,
      "Ġrespective": 569,
      "Ġso": 570,
      "Ġnot": 571,
      "Ġsum": 572,
      "ega": 573,
      "Ġrespectively": 574,
      "Find": 575,
      "Ġset": 576,
      "oin": 577,
      "ment": 578,
      "ä¸": 579,
      "times": 580,
      "ĠÃ": 581,
      "per": 582,
      "ero": 583,
      "ces": 584,
      "Ġta": 585,
      "Ġcircum": 586,
      "ell": 587,
      "ĠFind": 588,
      "Ġver": 589,
      "alle": 590,
      "ĠW": 591,
      "etermine": 592,
      "Ġ<": 593,
      "Ġno": 594,
      "me": 595,
      "dot": 596,
      "ast": 597,
      "ant": 598,
      "ĠM": 599,
      "Ðº": 600,
      "very": 601,
      "Ñĥ": 602,
      "isf": 603,
      "Ġpri": 604,
      "ree": 605,
      "Ġsat": 606,
      "iven": 607,
      "ater": 608,
      "Ġlet": 609,
      "Ġsatisf": 610,
      "Ġside": 611,
      "ne": 612,
      "ction": 613,
      "ides": 614,
      "how": 615,
      "cdot": 616,
      "ass": 617,
      "ence": 618,
      "ular": 619,
      "ther": 620,
      "Ġes": 621,
      "Ġma": 622,
      "Ġ20": 623,
      "Ġman": 624,
      "Ãº": 625,
      "ute": 626,
      "Ð²": 627,
      "Ġsequ": 628,
      "tex": 629,
      "Ġequal": 630,
      ").": 631,
      "Ġevery": 632,
      "Ġdivis": 633,
      "all": 634,
      "enter": 635,
      "ple": 636,
      "Ġli": 637,
      "tri": 638,
      "Ġar": 639,
      "Ġnon": 640,
      "201": 641,
      "Ġhave": 642,
      "geq": 643,
      "omega": 644,
      "ines": 645,
      "Ġsom": 646,
      "Ġplay": 647,
      "Ð´": 648,
      "hat": 649,
      "tain": 650,
      "Ġ>": 651,
      "rou": 652,
      "Ġthan": 653,
      "Ġwe": 654,
      "llow": 655,
      "Ġfollow": 656,
      "Ġdistin": 657,
      "rit": 658,
      "leq": 659,
      "Ġ5": 660,
      "ffer": 661,
      "Ġme": 662,
      "Ġcons": 663,
      "Ãºm": 664,
      "Ġtang": 665,
      "}^{": 666,
      "ons": 667,
      "Ġquad": 668,
      "ĠnÃºm": 669,
      "act": 670,
      "ab": 671,
      "Ġdiffer": 672,
      "Ġits": 673,
      "Ġthree": 674,
      "Äĥ": 675,
      "Ġpair": 676,
      "ph": 677,
      "Ġmany": 678,
      "Ġthen": 679,
      "Ã¡": 680,
      "Ġleast": 681,
      "10": 682,
      "se": 683,
      "çļ": 684,
      "ABCD": 685,
      "circle": 686,
      "Ġsatisfy": 687,
      "}=": 688,
      "ĠO": 689,
      "ĠÑ": 690,
      "Ġlines": 691,
      "Ġpoly": 692,
      "rough": 693,
      "amma": 694,
      "Ġcu": 695,
      "Ġhe": 696,
      "ive": 697,
      "çļĦ": 698,
      "Ġfollowing": 699,
      "ect": 700,
      "ngth": 701,
      "Ġthrough": 702,
      "ud": 703,
      "Ġsides": 704,
      "ci": 705,
      "Ġsequence": 706,
      "pp": 707,
      "ten": 708,
      "Ġvalue": 709,
      "Ġsame": 710,
      "Ġmid": 711,
      "Ġlength": 712,
      "git": 713,
      "poin": 714,
      "Ġum": 715,
      "ments": 716,
      "Ġother": 717,
      "Äį": 718,
      "agon": 719,
      "ĠĠ": 720,
      "æķ": 721,
      "triangle": 722,
      "Ġexis": 723,
      "li": 724,
      "Ġfun": 725,
      "AD": 726,
      "Ġdistinct": 727,
      "we": 728,
      "Ġsi": 729,
      "Ġ6": 730,
      "Ġet": 731,
      "att": 732,
      "ors": 733,
      "ente": 734,
      "ãĢ": 735,
      "Ġ*": 736,
      "Ð³": 737,
      "der": 738,
      "ĠIf": 739,
      "age": 740,
      "ĠN": 741,
      "ity": 742,
      "Ġel": 743,
      "ost": 744,
      "Ġsegment": 745,
      "Ġwhere": 746,
      "ĠH": 747,
      "Ġprime": 748,
      "Ġexact": 749,
      "ateral": 750,
      "ont": 751,
      "fin": 752,
      "Ġne": 753,
      "Ġang": 754,
      "pend": 755,
      "--": 756,
      "io": 757,
      "Ġthis": 758,
      "ke": 759,
      "}-": 760,
      "Ġdigit": 761,
      "ãĢĤ": 762,
      "Ġsquares": 763,
      "ds": 764,
      "Ġbl": 765,
      "Ġles": 766,
      "ote": 767,
      "Ġmeet": 768,
      "Ġ9": 769,
      "Ġtangent": 770,
      "Ð¼": 771,
      "ial": 772,
      "sum": 773,
      "Ġmidpoin": 774,
      "ate": 775,
      "loor": 776,
      "Ġsome": 777,
      "Ġsm": 778,
      "Ã£": 779,
      "Ġexactly": 780,
      "bo": 781,
      "Ġverti": 782,
      "eri": 783,
      "}}": 784,
      "Ġele": 785,
      "floor": 786,
      "Ġden": 787,
      "ong": 788,
      "Å¡": 789,
      "text": 790,
      "over": 791,
      "ĠÃ©": 792,
      ")$.": 793,
      "Ġdifferent": 794,
      "Ġfunction": 795,
      "Ã£o": 796,
      "ĠQ": 797,
      "ĠG": 798,
      "for": 799,
      "ĠShow": 800,
      "ill": 801,
      "ane": 802,
      "Ġins": 803,
      "Ġac": 804,
      "ess": 805,
      "ached": 806,
      "(\\": 807,
      "The": 808,
      "quad": 809,
      "Gamma": 810,
      "Ġmin": 811,
      "CD": 812,
      "ou": 813,
      "Ġexists": 814,
      "$-": 815,
      "Ġintersect": 816,
      "image": 817,
      "Ġcircumcircle": 818,
      "attached": 819,
      "![": 820,
      "](": 821,
      "png": 822,
      "![](": 823,
      "Ġcell": 824,
      "Ġcontain": 825,
      "imum": 826,
      "ÑĤÐ¾": 827,
      "Ġintersects": 828,
      "Ġthem": 829,
      "upp": 830,
      "cal": 831,
      "ĠFor": 832,
      "ted": 833,
      "Ġinto": 834,
      ")^": 835,
      "ĠL": 836,
      "Ġform": 837,
      "Ġ$\\{": 838,
      "ider": 839,
      ")$,": 840,
      "allel": 841,
      "),": 842,
      "Ġ&": 843,
      "ore": 844,
      "Ġpass": 845,
      "ril": 846,
      "ap": 847,
      "In": 848,
      "Ġwrit": 849,
      "uppose": 850,
      "pendic": 851,
      "Ġbis": 852,
      "ty": 853,
      "ĠÐ½": 854,
      "Ġgre": 855,
      "Ġsub": 856,
      "ack": 857,
      "ici": 858,
      "Ġpolyn": 859,
      "line": 860,
      "ays": 861,
      "$?": 862,
      "ĠÑģ": 863,
      "Ġperpendic": 864,
      "^\\": 865,
      "od": 866,
      "Ġexist": 867,
      "ale": 868,
      "Ġarea": 869,
      "omial": 870,
      "Ġnat": 871,
      "}(": 872,
      "Ñĭ": 873,
      "Ġvertices": 874,
      "100": 875,
      "Ġpi": 876,
      "ĠÐ¿": 877,
      "urn": 878,
      "Ġ$|": 879,
      "ond": 880,
      "Ġ:": 881,
      "ible": 882,
      "lic": 883,
      "}+\\": 884,
      "Ġintersection": 885,
      "ni": 886,
      "cdots": 887,
      "Ġad": 888,
      ")=": 889,
      "ĠZ": 890,
      "Ġpolynomial": 891,
      "Ġ\\{": 892,
      "ie": 893,
      "ins": 894,
      "ĠABC": 895,
      "Ġrect": 896,
      "ĠWhat": 897,
      "Ġbet": 898,
      ")(": 899,
      "\\}$": 900,
      "here": 901,
      "ween": 902,
      "Ġ10": 903,
      "æķ¸": 904,
      "Ġpun": 905,
      "Ġcho": 906,
      "neq": 907,
      "Ġperpendicular": 908,
      "ues": 909,
      "ada": 910,
      "Ġtriangles": 911,
      "Ġgiven": 912,
      "Ġbetween": 913,
      "irst": 914,
      "Ġda": 915,
      "Ġrow": 916,
      "and": 917,
      "Ġå": 918,
      "ÃŃ": 919,
      "Ġ7": 920,
      "Ġlar": 921,
      "rib": 922,
      "Ġ8": 923,
      "eros": 924,
      "Ġquadril": 925,
      "Ġonly": 926,
      "rm": 927,
      "Ġangle": 928,
      "Ġsatisfying": 929,
      "Ġlos": 930,
      "Ġequation": 931,
      "ĠDetermine": 932,
      "overline": 933,
      "center": 934,
      "Ñĩ": 935,
      "Ġem": 936,
      "Ġfirst": 937,
      "Ġche": 938,
      "Ġdigits": 939,
      "Ġdel": 940,
      "'$": 941,
      "ative": 942,
      "æľ": 943,
      "set": 944,
      "Ġcomp": 945,
      "Ġ201": 946,
      "mathrm": 947,
      "Ġmidpoint": 948,
      "200": 949,
      "ÑĢÐ°": 950,
      "Ġreg": 951,
      "{\\": 952,
      "Ġcomm": 953,
      "ĠK": 954,
      "Ġob": 955,
      "^{\\": 956,
      "ulo": 957,
      "pres": 958,
      "entre": 959,
      "Ġmax": 960,
      "ord": 961,
      "du": 962,
      "row": 963,
      "Ġest": 964,
      "Ġthese": 965,
      "lest": 966,
      "allest": 967,
      "Ð¹": 968,
      "ÑĮ": 969,
      "Ġplane": 970,
      "Ġdes": 971,
      "pe": 972,
      "our": 973,
      "Ð¶": 974,
      "Ġdivisible": 975,
      "Ġsmallest": 976,
      "Ġcor": 977,
      "ĠÐ¾": 978,
      "ĠnÃºmero": 979,
      "ter": 980,
      "Ġorder": 981,
      "Ġfin": 982,
      "Determine": 983,
      "Ġ\\\\": 984,
      "ru": 985,
      "Ã§": 986,
      "ise": 987,
      "ga": 988,
      "Ġil": 989,
      "Ġlarg": 990,
      "so": 991,
      "ĠÐ¸": 992,
      "Ġquadrilateral": 993,
      "}}{": 994,
      "pha": 995,
      "Ġdiagon": 996,
      "ĠR": 997,
      "202": 998,
      "For": 999,
      "alpha": 1000,
      "Ġwritten": 1001,
      "und": 1002,
      "ij": 1003,
      "ally": 1004,
      "Ñħ": 1005,
      "ck": 1006,
      "Ġpre": 1007,
      "Ġtim": 1008,
      "mo": 1009,
      "Ġ$[": 1010,
      "rat": 1011,
      "Ġsol": 1012,
      "Ġfour": 1013,
      ")^{": 1014,
      "ari": 1015,
      "Ġvalues": 1016,
      "Ð½Ð¾": 1017,
      "ĠnÃºmeros": 1018,
      "Ġsec": 1019,
      "12": 1020,
      "ii": 1021,
      "Ġparallel": 1022,
      "BD": 1023,
      "na": 1024,
      "ves": 1025,
      "Ġnatur": 1026,
      "ando": 1027,
      "Ġtheir": 1028,
      "Ġboard": 1029,
      "Ġpairs": 1030,
      "ĠIn": 1031,
      "ven": 1032,
      "Ã³": 1033,
      "Ð½Ð¸": 1034,
      "+\\": 1035,
      "Ġprodu": 1036,
      "Ġinfin": 1037,
      "de": 1038,
      "Ġgame": 1039,
      "Ġboth": 1040,
      "sl": 1041,
      "fter": 1042,
      "Ġblack": 1043,
      "arrow": 1044,
      "Ġcond": 1045,
      "Ġturn": 1046,
      "Ġunit": 1047,
      "EF": 1048,
      "equ": 1049,
      "Ġright": 1050,
      "Ġsh": 1051,
      "ĠÐ´": 1052,
      "Given": 1053,
      "Ġbisect": 1054,
      "ĠÐ±": 1055,
      "ĠÐº": 1056,
      "ĠAC": 1057,
      "mathcal": 1058,
      "Ġacute": 1059,
      "11": 1060,
      "Ġje": 1061,
      "Ġfind": 1062,
      "Ġuna": 1063,
      "crib": 1064,
      "Ġdoes": 1065,
      "ps": 1066,
      "Ġcard": 1067,
      "art": 1068,
      "ÑĢÐ¾": 1069,
      "log": 1070,
      "Ġmove": 1071,
      "ure": 1072,
      "Ġwill": 1073,
      "ia": 1074,
      "ase": 1075,
      "Ġrad": 1076,
      "CA": 1077,
      "raw": 1078,
      "ä¸Ģ": 1079,
      "Ġcer": 1080,
      "nt": 1081,
      "pl": 1082,
      "Ġ100": 1083,
      "ÐºÐ°": 1084,
      "Ġdenote": 1085,
      "sion": 1086,
      "Ð·": 1087,
      "ÑĤÐ°": 1088,
      "Ġplac": 1089,
      "Ġsegments": 1090,
      "ĠÐ²": 1091,
      "slant": 1092,
      "pi": 1093,
      "åĢ": 1094,
      "eter": 1095,
      "Ġdiagonal": 1096,
      "Ñı": 1097,
      "rightarrow": 1098,
      "))": 1099,
      "ffici": 1100,
      "Ġod": 1101,
      "Ġcommon": 1102,
      "ä»": 1103,
      "çĤ": 1104,
      "Ñį": 1105,
      "çĤº": 1106,
      "..": 1107,
      "Ġcells": 1108,
      "Ġcolor": 1109,
      "Ġlies": 1110,
      "fer": 1111,
      "åľ": 1112,
      "ko": 1113,
      "Ġelements": 1114,
      "za": 1115,
      "Ġsubset": 1116,
      "hen": 1117,
      "Ġmul": 1118,
      "be": 1119,
      "Ġterm": 1120,
      "åħ": 1121,
      "Ġinfinite": 1122,
      "no": 1123,
      "Ġget": 1124,
      "ngulo": 1125,
      "Ġ($": 1126,
      "Ġplayer": 1127,
      "Ġlargest": 1128,
      "Ġnatural": 1129,
      "Ã¢": 1130,
      "ither": 1131,
      "Ġtable": 1132,
      "é»": 1133,
      "Ġcenter": 1134,
      "ition": 1135,
      "imal": 1136,
      "Ġed": 1137,
      "Ġdie": 1138,
      "Ġdraw": 1139,
      "rid": 1140,
      "Ġlo": 1141,
      "ual": 1142,
      "Ġpe": 1143,
      "Ġinc": 1144,
      "ix": 1145,
      "Ġproper": 1146,
      "ius": 1147,
      "Ġsecond": 1148,
      "omp": 1149,
      "Ġpor": 1150,
      "Ġna": 1151,
      "Ġcolum": 1152,
      "Ġcircles": 1153,
      "Ġ}": 1154,
      "Ġmar": 1155,
      "ÑĢÐµ": 1156,
      "Ġcoe": 1157,
      "vex": 1158,
      "æľī": 1159,
      "Ġthey": 1160,
      "ĠSuppose": 1161,
      "osen": 1162,
      "}.": 1163,
      "Ġus": 1164,
      "Ġinteri": 1165,
      "Ġvertex": 1166,
      "é»ŀ": 1167,
      "Ġtra": 1168,
      "99": 1169,
      "ros": 1170,
      "amente": 1171,
      "ĠÑĩ": 1172,
      "Ġmaximum": 1173,
      "ĠÃł": 1174,
      "Ġcoeffici": 1175,
      "Ġgo": 1176,
      "cribed": 1177,
      "'s": 1178,
      "rfloor": 1179,
      "Ġred": 1180,
      "lfloor": 1181,
      "Ġund": 1182,
      "Ġcolumn": 1183,
      "ĠÐ½Ð°": 1184,
      "ĠJ": 1185,
      "Ġproduct": 1186,
      "ges": 1187,
      "ign": 1188,
      "Ġchosen": 1189,
      "Ġrectangle": 1190,
      "met": 1191,
      "Ġson": 1192,
      "Ġwhose": 1193,
      "Ġfunctions": 1194,
      "æĸ": 1195,
      "Ġdec": 1196,
      "ĠBC": 1197,
      "ĠY": 1198,
      "Ġos": 1199,
      "Ãª": 1200,
      "onsider": 1201,
      "ĠSe": 1202,
      "ian": 1203,
      "Ġcada": 1204,
      "Ġenti": 1205,
      "ary": 1206,
      "Ġconvex": 1207,
      "ight": 1208,
      "Ġmost": 1209,
      "]$": 1210,
      "Ġinter": 1211,
      "que": 1212,
      "egative": 1213,
      "Ġstud": 1214,
      "ice": 1215,
      "ĠÃ¨": 1216,
      "ka": 1217,
      "Ġperf": 1218,
      "unt": 1219,
      "ados": 1220,
      "own": 1221,
      "board": 1222,
      "$;": 1223,
      "åĪ": 1224,
      "Ġte": 1225,
      "int": 1226,
      "Ġdos": 1227,
      "ance": 1228,
      "Ġlie": 1229,
      "Ġmeets": 1230,
      "Ġeither": 1231,
      "Ġprove": 1232,
      "Ġmulti": 1233,
      "yc": 1234,
      "Ġwhen": 1235,
      "Ġtr": 1236,
      "Ġout": 1237,
      "wise": 1238,
      "Ġra": 1239,
      "Ġsc": 1240,
      "tions": 1241,
      "Ġder": 1242,
      "ecu": 1243,
      "ram": 1244,
      "Ð¾Ð»": 1245,
      "not": 1246,
      "Ġbut": 1247,
      "Se": 1248,
      "Ġcl": 1249,
      "wer": 1250,
      "Ġmore": 1251,
      "ĠçļĦ": 1252,
      "Ġhis": 1253,
      "ĠX": 1254,
      "Ġless": 1255,
      "Ġcontains": 1256,
      "}^": 1257,
      "uch": 1258,
      "enti": 1259,
      "ases": 1260,
      "Ġway": 1261,
      "Ġconsecu": 1262,
      "Ġdis": 1263,
      "ompute": 1264,
      "Ġup": 1265,
      "Ġsolu": 1266,
      "Ġbisector": 1267,
      "Ã¼": 1268,
      "Ġdivid": 1269,
      "Ġradius": 1270,
      "ric": 1271,
      "eta": 1272,
      "ĠAn": 1273,
      "if": 1274,
      "igh": 1275,
      "Ġodd": 1276,
      "Ġpara": 1277,
      "Ġkn": 1278,
      "gain": 1279,
      "Ð±": 1280,
      "Ġve": 1281,
      "Ġfinite": 1282,
      "Ġmed": 1283,
      "$)": 1284,
      "negative": 1285,
      "Ġconc": 1286,
      "par": 1287,
      "~\\": 1288,
      "mid": 1289,
      "å°": 1290,
      "Ġagain": 1291,
      "Ġau": 1292,
      "Ġhow": 1293,
      "ÑĤÐµ": 1294,
      "Ġequil": 1295,
      ".)": 1296,
      "ja": 1297,
      "Ġrema": 1298,
      "alled": 1299,
      "Ġgrid": 1300,
      "egin": 1301,
      "els": 1302,
      "Ġcent": 1303,
      "begin": 1304,
      "Ġcalled": 1305,
      "ho": 1306,
      "Å¾": 1307,
      "Ġ\"": 1308,
      "ĠÅ¡": 1309,
      "Ġalso": 1310,
      "Ġcoefficients": 1311,
      "ze": 1312,
      "Ġinside": 1313,
      "Ġpositiv": 1314,
      "ust": 1315,
      "emp": 1316,
      "ĠWe": 1317,
      "cos": 1318,
      "oit": 1319,
      "Ġmoves": 1320,
      "Ġ200": 1321,
      "Ġgro": 1322,
      "pos": 1323,
      "ator": 1324,
      "Ġminimum": 1325,
      "Ġalt": 1326,
      "Ġhol": 1327,
      "Ġconst": 1328,
      "ies": 1329,
      "ks": 1330,
      "Ġperfect": 1331,
      "crit": 1332,
      "Ġam": 1333,
      "Ġuma": 1334,
      "Ġafter": 1335,
      "ĠV": 1336,
      "Ð¿": 1337,
      "Ġyou": 1338,
      "Ġexam": 1339,
      "Ġvan": 1340,
      "tho": 1341,
      "ile": 1342,
      "Ġ12": 1343,
      "Ġarr": 1344,
      "ĠHow": 1345,
      "åĢĭ": 1346,
      "ah": 1347,
      "ens": 1348,
      "Ġshe": 1349,
      "Ġbox": 1350,
      "unk": 1351,
      "ĠAB": 1352,
      "ano": 1353,
      "Ġparti": 1354,
      "\\}": 1355,
      "Ð½Ð°": 1356,
      "Ġpart": 1357,
      "Ġdefin": 1358,
      "ĠIt": 1359,
      "etermin": 1360,
      "Ð¸Ñģ": 1361,
      "ĠEach": 1362,
      "Ġconsider": 1363,
      "ving": 1364,
      "len": 1365,
      "æķ´": 1366,
      "Ġgreater": 1367,
      "Ð²Ð°": 1368,
      "tev": 1369,
      "ub": 1370,
      "ä½": 1371,
      "ien": 1372,
      "Ġregular": 1373,
      "AP": 1374,
      "Ġexample": 1375,
      "\\{": 1376,
      "fine": 1377,
      "æĺ": 1378,
      "Ġdiam": 1379,
      "Ġleft": 1380,
      "Ġproperty": 1381,
      "red": 1382,
      "Ġlas": 1383,
      "Ġè": 1384,
      "ade": 1385,
      "Ġcerc": 1386,
      "cm": 1387,
      "ace": 1388,
      "ner": 1389,
      "Ġwin": 1390,
      "Ġblue": 1391,
      "Ġsim": 1392,
      "omb": 1393,
      "ĠOn": 1394,
      "Ġcards": 1395,
      "ated": 1396,
      "cia": 1397,
      "xy": 1398,
      "her": 1399,
      "ier": 1400,
      "Ġtod": 1401,
      "ans": 1402,
      "ante": 1403,
      "Ġent": 1404,
      "Ġmay": 1405,
      "co": 1406,
      "ui": 1407,
      "Ġortho": 1408,
      "ations": 1409,
      "æī": 1410,
      "}{\\": 1411,
      "Ġplayers": 1412,
      "itud": 1413,
      "one": 1414,
      "Ġ90": 1415,
      "Ġshow": 1416,
      "tal": 1417,
      "Ġfig": 1418,
      "Suppose": 1419,
      "Ġconsecutive": 1420,
      "Ġpu": 1421,
      "itions": 1422,
      "Ġend": 1423,
      "Ġq": 1424,
      "Ġroo": 1425,
      "Ġinscribed": 1426,
      "Ġgroup": 1427,
      "Ġge": 1428,
      "sig": 1429,
      "æĸ¼": 1430,
      "Ġcont": 1431,
      "ontr": 1432,
      "arr": 1433,
      "Ġste": 1434,
      "DE": 1435,
      "Ġequilateral": 1436,
      "Ġdire": 1437,
      "Ġ202": 1438,
      "Ã¨": 1439,
      "Ð½Ñĭ": 1440,
      "geqslant": 1441,
      "---": 1442,
      "yclic": 1443,
      "tevil": 1444,
      "val": 1445,
      "Ġmet": 1446,
      "Ġab": 1447,
      "Ġlengths": 1448,
      "Ġinterior": 1449,
      "Ġtotal": 1450,
      ")+": 1451,
      "olo": 1452,
      "ÐµÑĤ": 1453,
      "celes": 1454,
      "ult": 1455,
      "Ġou": 1456,
      "fty": 1457,
      "äº": 1458,
      "Ġaltitud": 1459,
      "lection": 1460,
      "Ġcas": 1461,
      "Ġwhite": 1462,
      "Ġpiec": 1463,
      "ĠPoin": 1464,
      "ca": 1465,
      "ored": 1466,
      "**": 1467,
      "infty": 1468,
      "Å£": 1469,
      "åĲ": 1470,
      "ha": 1471,
      "ÑģÑĤ": 1472,
      "__": 1473,
      "Ġeen": 1474,
      "Ġtouch": 1475,
      "ĠÃ®": 1476,
      "ys": 1477,
      "Ñĺ": 1478,
      "æŃ": 1479,
      "Ġ[": 1480,
      "ational": 1481,
      "âĢ": 1482,
      "uld": 1483,
      "oper": 1484,
      "Ġadj": 1485,
      "sin": 1486,
      "BE": 1487,
      "Consider": 1488,
      "Ġdivisors": 1489,
      "$).": 1490,
      "Ã³n": 1491,
      "æķ´æķ¸": 1492,
      ")\\": 1493,
      "ux": 1494,
      "Ġwho": 1495,
      "Ġpolygon": 1496,
      "Om": 1497,
      "Omega": 1498,
      "çĽ": 1499,
      "Ġball": 1500,
      "ura": 1501,
      "Ġalle": 1502,
      "Ġtime": 1503,
      "Ġtimes": 1504,
      "acent": 1505,
      "13": 1506,
      "Ġstudents": 1507,
      "Ġover": 1508,
      "Ġrel": 1509,
      "å¾": 1510,
      "Ġapp": 1511,
      "ara": 1512,
      "ĠU": 1513,
      "Ġim": 1514,
      "ontrer": 1515,
      "name": 1516,
      "Ġnec": 1517,
      "Ġpunto": 1518,
      "Ġobtain": 1519,
      "PQ": 1520,
      "ag": 1521,
      "pri": 1522,
      "Ġmat": 1523,
      "Ġdivides": 1524,
      "ĠZah": 1525,
      "atorname": 1526,
      "operatorname": 1527,
      "XY": 1528,
      "ĠçĤº": 1529,
      "Ġho": 1530,
      "equal": 1531,
      "mos": 1532,
      "Ġpers": 1533,
      "osceles": 1534,
      "Ġcomple": 1535,
      "AE": 1536,
      "ob": 1537,
      "align": 1538,
      "Ġmen": 1539,
      "Ġconditions": 1540,
      "\\}$.": 1541,
      "Ġways": 1542,
      "Ġdetermine": 1543,
      "ĠQu": 1544,
      "gin": 1545,
      "Ġdivided": 1546,
      "Ġadjacent": 1547,
      "ways": 1548,
      "Ġbel": 1549,
      "ĠÑĤÐ¾": 1550,
      "Ġchoose": 1551,
      "Ġdiagonals": 1552,
      "å¤": 1553,
      "Ġ/": 1554,
      "Ġperm": 1555,
      "Ġeven": 1556,
      "ities": 1557,
      "ĠCompute": 1558,
      "Ġsmall": 1559,
      ")}": 1560,
      "Ġopp": 1561,
      "Ġlat": 1562,
      "Ġexpres": 1563,
      "Ġrepres": 1564,
      "Ġinfinitely": 1565,
      "16": 1566,
      "Ġinequal": 1567,
      "Ġmidpoints": 1568,
      "riend": 1569,
      "gamma": 1570,
      "Ġconn": 1571,
      "Ġtake": 1572,
      "Ġdefined": 1573,
      "Ġmark": 1574,
      "az": 1575,
      "Ġalways": 1576,
      "ning": 1577,
      "ÐºÐ¾": 1578,
      "AM": 1579,
      "Ġein": 1580,
      "ĠÅ¡tevil": 1581,
      "aj": 1582,
      "Ġcircumcenter": 1583,
      "alc": 1584,
      "tern": 1585,
      "Ġarrang": 1586,
      "æīĢ": 1587,
      "15": 1588,
      "Ġangles": 1589,
      "kes": 1590,
      "Ġgr": 1591,
      "Ġgreat": 1592,
      "There": 1593,
      "og": 1594,
      "Ġsch": 1595,
      "Ġbase": 1596,
      "Ġdeg": 1597,
      "Ã§Ã£o": 1598,
      "ç·": 1599,
      "Ġä¸": 1600,
      "Ġoper": 1601,
      "Ġpasses": 1602,
      "25": 1603,
      "wide": 1604,
      "}_{": 1605,
      "ÐµÐ½": 1606,
      "Ġcoins": 1607,
      "Ġgreatest": 1608,
      "cc": 1609,
      "aligned": 1610,
      "tos": 1611,
      "form": 1612,
      "urre": 1613,
      "widehat": 1614,
      "æĪ": 1615,
      "Ã¼r": 1616,
      "osite": 1617,
      "Ġsem": 1618,
      "Ġdistance": 1619,
      "Ġpassing": 1620,
      "æŃ£": 1621,
      "An": 1622,
      "tem": 1623,
      "Ġcoin": 1624,
      "Show": 1625,
      "ÑĪ": 1626,
      "Ġgra": 1627,
      "Ġarc": 1628,
      "Ġsono": 1629,
      "ak": 1630,
      "cd": 1631,
      "ÑĨ": 1632,
      "imo": 1633,
      "Ġstart": 1634,
      "ÈĽ": 1635,
      "Ġsp": 1636,
      "Ġnecess": 1637,
      "ç·ļ": 1638,
      "dig": 1639,
      "Ġca": 1640,
      "Ġwhat": 1641,
      "bit": 1642,
      "Ńī": 1643,
      "Ġ15": 1644,
      "Ð»Ð¸": 1645,
      "Ġroots": 1646,
      "Ġdu": 1647,
      "Ġwins": 1648,
      "abil": 1649,
      "tiv": 1650,
      "Ġvon": 1651,
      "Ġig": 1652,
      "Ġdrawn": 1653,
      "lice": 1654,
      "other": 1655,
      "åı": 1656,
      "inom": 1657,
      "Ġop": 1658,
      "Ġnomb": 1659,
      "Ġmust": 1660,
      "Ġref": 1661,
      "ÑĢÐ¸": 1662,
      "ĠGiven": 1663,
      "Ġterms": 1664,
      "Ġamong": 1665,
      "Ġu": 1666,
      "elle": 1667,
      "Ġinequality": 1668,
      "Ò¯": 1669,
      "Soit": 1670,
      "Ġdat": 1671,
      "Ġdiameter": 1672,
      "Ġer": 1673,
      "enote": 1674,
      "...": 1675,
      ")}{": 1676,
      "ule": 1677,
      "Ġalg": 1678,
      "Ġcoll": 1679,
      "lock": 1680,
      "Ġequality": 1681,
      "We": 1682,
      "|$.": 1683,
      "ino": 1684,
      "Ġori": 1685,
      "Ġhex": 1686,
      "swer": 1687,
      "ĠÃ®n": 1688,
      "Ġprob": 1689,
      "Ġteam": 1690,
      "beta": 1691,
      "ran": 1692,
      "ÅŁ": 1693,
      "Īĩ": 1694,
      "Ġfriend": 1695,
      "Ġvol": 1696,
      "Ġrational": 1697,
      "Ġplaced": 1698,
      "iz": 1699,
      "vo": 1700,
      "ences": 1701,
      "cases": 1702,
      "pm": 1703,
      "Ġisosceles": 1704,
      "Ġlast": 1705,
      "Ġ13": 1706,
      "Ġcolour": 1707,
      "Ġchoos": 1708,
      "digit": 1709,
      "ales": 1710,
      "ples": 1711,
      "Ġuni": 1712,
      "MN": 1713,
      "where": 1714,
      "Ġdass": 1715,
      "Ġholds": 1716,
      "Ġprobabil": 1717,
      "je": 1718,
      "ken": 1719,
      "lla": 1720,
      "inear": 1721,
      "Ġarbit": 1722,
      "Ġedges": 1723,
      "'$,": 1724,
      "è¨": 1725,
      "Ġpolynomials": 1726,
      "able": 1727,
      "ear": 1728,
      "Ġposs": 1729,
      "Ġcube": 1730,
      "ordin": 1731,
      "Ġsubsets": 1732,
      "parallel": 1733,
      "å½": 1734,
      "Ġcercle": 1735,
      "If": 1736,
      "åľ¨": 1737,
      "Ġ11": 1738,
      "Ġchess": 1739,
      "andom": 1740,
      "ath": 1741,
      "Ġanother": 1742,
      "Ġsets": 1743,
      "Ġdivisor": 1744,
      "Ġ:---": 1745,
      "Ġ$-": 1746,
      "Ġblackboard": 1747,
      "la": 1748,
      "Ġpol": 1749,
      "Ġrandom": 1750,
      "Ġhexagon": 1751,
      "ople": 1752,
      "use": 1753,
      "Ġpermut": 1754,
      "=\\": 1755,
      "How": 1756,
      "urrent": 1757,
      "da": 1758,
      "ists": 1759,
      "onst": 1760,
      "ber": 1761,
      "Ġfe": 1762,
      "å½¢": 1763,
      "cap": 1764,
      "ĠsÃ£o": 1765,
      "ates": 1766,
      "Ġfac": 1767,
      "Ġonce": 1768,
      "ĠÐ·": 1769,
      "Ġnecessari": 1770,
      "iro": 1771,
      "Ġpent": 1772,
      "Ġsur": 1773,
      "Ġmultiple": 1774,
      "Ġsolutions": 1775,
      "$ãĢĤ": 1776,
      "Ġpour": 1777,
      "Ġdeux": 1778,
      "Ġexce": 1779,
      "ĠCD": 1780,
      "feren": 1781,
      "Ġpeople": 1782,
      "ants": 1783,
      "ĠÐ¿Ð¾": 1784,
      "min": 1785,
      "})": 1786,
      "vel": 1787,
      "Ġcolored": 1788,
      "Ġsatisfies": 1789,
      "Ġcollinear": 1790,
      "reas": 1791,
      "ĠAt": 1792,
      "Ġdro": 1793,
      "Ġincircle": 1794,
      "Ġfix": 1795,
      "ether": 1796,
      "ĠtriÃ¡": 1797,
      "ĠBAC": 1798,
      "ous": 1799,
      "Ġdown": 1800,
      "Ġap": 1801,
      "ĠÐ¼": 1802,
      "ĠThen": 1803,
      "go": 1804,
      "ĠcÄĥ": 1805,
      "Ġret": 1806,
      "åľĵ": 1807,
      "zero": 1808,
      "è§": 1809,
      "Ġune": 1810,
      "Ġpairwise": 1811,
      "Å¡Äį": 1812,
      "Ġrepresent": 1813,
      "Ġsont": 1814,
      "ĠĠĠĠ": 1815,
      "\\}$,": 1816,
      "Ġparalle": 1817,
      "æŃ£æķ´æķ¸": 1818,
      "ĠIs": 1819,
      "Ġcolors": 1820,
      "æĺ¯": 1821,
      "Ġmem": 1822,
      "Ġhet": 1823,
      "Ð»Ð¾": 1824,
      "ä¸Ń": 1825,
      "Ġprobability": 1826,
      "va": 1827,
      "Ġsit": 1828,
      "ĠThere": 1829,
      "Ġsegu": 1830,
      "Ġturns": 1831,
      "Ġballs": 1832,
      "Ġentre": 1833,
      "ected": 1834,
      "Ġiz": 1835,
      "Ġentier": 1836,
      "40": 1837,
      "ied": 1838,
      "rite": 1839,
      "td": 1840,
      "Ġdue": 1841,
      "Ġdecimal": 1842,
      "Ġtodos": 1843,
      "æīĢæľī": 1844,
      "ĥ½": 1845,
      "angled": 1846,
      "ĠDe": 1847,
      "Ð³Ð¾": 1848,
      "Ġopposite": 1849,
      "><": 1850,
      "Ġtal": 1851,
      "Ġiniti": 1852,
      "Ġmit": 1853,
      "ĠDenote": 1854,
      "Ð¶Ð¸": 1855,
      "Ġcannot": 1856,
      "Ġemp": 1857,
      "ross": 1858,
      "å°į": 1859,
      "è§Ĵ": 1860,
      "ced": 1861,
      "åŃ": 1862,
      "Ġcentre": 1863,
      "anti": 1864,
      "Ġmes": 1865,
      "ange": 1866,
      "Ġknown": 1867,
      "Ġanswer": 1868,
      "Ġallow": 1869,
      "ä¸ī": 1870,
      "ib": 1871,
      "Ġnumero": 1872,
      "urs": 1873,
      "Ġstar": 1874,
      "Ġdivide": 1875,
      "Ġneigh": 1876,
      "50": 1877,
      "ais": 1878,
      "Ġ.": 1879,
      "Ġwas": 1880,
      "edro": 1881,
      "Ġ16": 1882,
      "ola": 1883,
      "ĠBob": 1884,
      "logram": 1885,
      "ĠÑĤ": 1886,
      "ĠÅŁ": 1887,
      "perp": 1888,
      "ostr": 1889,
      "ire": 1890,
      "}}$": 1891,
      "ulos": 1892,
      "Ġcircun": 1893,
      "unkt": 1894,
      "Ġperson": 1895,
      "cip": 1896,
      "Ġedge": 1897,
      "Ġgood": 1898,
      "Ġeine": 1899,
      "ads": 1900,
      "Ġtriang": 1901,
      "Ġtab": 1902,
      "Ġadd": 1903,
      "amb": 1904,
      "ĠÑĤÐ°": 1905,
      "Ġcyclic": 1906,
      "Ġfli": 1907,
      "leqslant": 1908,
      "Ġnecessarily": 1909,
      "rary": 1910,
      "xt": 1911,
      "})$": 1912,
      "éģ": 1913,
      "Ð»Ð°": 1914,
      "ĠÃ¡": 1915,
      "Ġquadr": 1916,
      "ould": 1917,
      "|$": 1918,
      "ĠâĢ": 1919,
      "Ġcoordin": 1920,
      "Ġperim": 1921,
      "Ġchooses": 1922,
      "On": 1923,
      "è©": 1924,
      "Ġ?": 1925,
      "Ġincenter": 1926,
      "ort": 1927,
      "Ġalong": 1928,
      "Ġlado": 1929,
      "Ġsmaller": 1930,
      "Ð»ÑĮ": 1931,
      "metic": 1932,
      "Ġorthocenter": 1933,
      "è¨Ń": 1934,
      "array": 1935,
      "Ġmarked": 1936,
      "ok": 1937,
      "Ġdefine": 1938,
      "Ġhaving": 1939,
      "Ġelement": 1940,
      "èŃī": 1941,
      "Ġpath": 1942,
      "Ġarith": 1943,
      "30": 1944,
      "Ġmake": 1945,
      "Ġdenot": 1946,
      "Ġknow": 1947,
      "ry": 1948,
      "rateg": 1949,
      "Ġcondition": 1950,
      "equiv": 1951,
      "ä¸ĢåĢĭ": 1952,
      "14": 1953,
      "kot": 1954,
      "ÑĥÐ³": 1955,
      "Ġcub": 1956,
      "Ġtouches": 1957,
      "Ã¤": 1958,
      "Ġdifference": 1959,
      "ĠÐºÐ¾": 1960,
      "cted": 1961,
      "ome": 1962,
      "ĠAD": 1963,
      "ĠAl": 1964,
      "Ġsequences": 1965,
      "Ġarbitrary": 1966,
      "gcd": 1967,
      "wn": 1968,
      "Ġwrite": 1969,
      "Ġconsists": 1970,
      "ĠÐ±Ð°": 1971,
      "Ġarithmetic": 1972,
      "Ġsay": 1973,
      "Ġeste": 1974,
      "pez": 1975,
      "Ġgraph": 1976,
      "Ġreflection": 1977,
      "ĠÅŁi": 1978,
      "jec": 1979,
      "ato": 1980,
      "Ġcities": 1981,
      "ĠAs": 1982,
      "circles": 1983,
      "sume": 1984,
      "Ã¢ngulo": 1985,
      "-\\": 1986,
      "What": 1987,
      "led": 1988,
      "Ġfoot": 1989,
      "}=\\": 1990,
      ",\\": 1991,
      "{(": 1992,
      "Ñİ": 1993,
      "Ġenter": 1994,
      "Ġpr": 1995,
      "Ġfive": 1996,
      "rado": 1997,
      "19": 1998,
      "Ġnonnegative": 1999,
      "Ġremain": 2000,
      "Ġher": 2001,
      "Ġtriples": 2002,
      "Ġqual": 2003,
      "Ġzero": 2004,
      "ĠQual": 2005,
      "ĠZahlen": 2006,
      "Ġfixed": 2007,
      "}_": 2008,
      "Ġtels": 2009,
      "ings": 2010,
      "Ġconsist": 2011,
      "elta": 2012,
      "Ġmodo": 2013,
      "empty": 2014,
      "Ġtout": 2015,
      "Ġdois": 2016,
      "Ġprem": 2017,
      "prime": 2018,
      "Ġfriends": 2019,
      "]{": 2020,
      "è¶": 2021,
      "Ġsa": 2022,
      "ren": 2023,
      "Ġwor": 2024,
      "Ġtous": 2025,
      "Ð°Ð½": 2026,
      "ilar": 2027,
      "Ð»Ðµ": 2028,
      "ĠtriÃ¡ngulo": 2029,
      "BP": 2030,
      "DA": 2031,
      "ores": 2032,
      "ĠTh": 2033,
      "ĠÑħ": 2034,
      "atively": 2035,
      "ä»¤": 2036,
      "Ġconstru": 2037,
      "Ó©": 2038,
      "ede": 2039,
      "ĠÑĩÐ¸Ñģ": 2040,
      "king": 2041,
      "lich": 2042,
      "Ġ...": 2043,
      "tice": 2044,
      "Ġyour": 2045,
      "Ġstrateg": 2046,
      "Ġentiers": 2047,
      "Ġabo": 2048,
      "ĠtoÄį": 2049,
      "ione": 2050,
      "Ð²Ðµ": 2051,
      "Two": 2052,
      "Ġist": 2053,
      "Ġsele": 2054,
      "Ġsix": 2055,
      "Ġhal": 2056,
      "Ġresult": 2057,
      "ĠMontrer": 2058,
      "2016": 2059,
      "Ġremaind": 2060,
      "Ġaltitude": 2061,
      "24": 2062,
      "ono": 2063,
      "Ġlados": 2064,
      "ament": 2065,
      "Ġcontaining": 2066,
      "Ġ&=": 2067,
      "ige": 2068,
      "endo": 2069,
      "Ġrat": 2070,
      "Ġnew": 2071,
      "ung": 2072,
      "ĠBe": 2073,
      "ctly": 2074,
      "ĠÐ¾Ð´": 2075,
      "Ġallowed": 2076,
      "ĠvÃ©": 2077,
      "oli": 2078,
      "ica": 2079,
      "Ġexiste": 2080,
      "Ġboxes": 2081,
      "Ġdenotes": 2082,
      "BA": 2083,
      "ip": 2084,
      "ting": 2085,
      "ina": 2086,
      "rei": 2087,
      "ĠAlice": 2088,
      "ĠDo": 2089,
      "Ãªn": 2090,
      "sigma": 2091,
      "ÐºÐ¸": 2092,
      "Ġincl": 2093,
      "Ġtrapez": 2094,
      "äº¤": 2095,
      "cu": 2096,
      "Ġrepl": 2097,
      "Ġconcurrent": 2098,
      "Ġobtained": 2099,
      "Ġconnected": 2100,
      "kotni": 2101,
      "]$.": 2102,
      "Ġpon": 2103,
      "Ġperimeter": 2104,
      "Ġser": 2105,
      "ild": 2106,
      "Ġstri": 2107,
      "ĠÑĩÑĤÐ¾": 2108,
      "Ġparallelogram": 2109,
      "ungh": 2110,
      "ä½¿": 2111,
      "Ġexpression": 2112,
      "men": 2113,
      "eck": 2114,
      "Ġ30": 2115,
      "reasing": 2116,
      "Ġpic": 2117,
      "ÑĢÑĥ": 2118,
      "ĠÑģÐµ": 2119,
      "Ġstep": 2120,
      "å¾Ĺ": 2121,
      "ĠÐ·Ð°": 2122,
      "cent": 2123,
      "Ġri": 2124,
      "Ġcall": 2125,
      "til": 2126,
      "Ġ18": 2127,
      "Ġ25": 2128,
      "Ġgan": 2129,
      "Ġprog": 2130,
      "Ġquadrat": 2131,
      "Ġrelatively": 2132,
      "alcul": 2133,
      "Ġdegree": 2134,
      "éĽ": 2135,
      "Ġdas": 2136,
      "Ġwere": 2137,
      "ĠÐµ": 2138,
      "max": 2139,
      "çĽ´": 2140,
      "Ġbelong": 2141,
      "out": 2142,
      "ym": 2143,
      "Ġocc": 2144,
      "ish": 2145,
      "Ġind": 2146,
      "ngulos": 2147,
      "Ġmod": 2148,
      "2023": 2149,
      "Ġmedian": 2150,
      "60": 2151,
      "binom": 2152,
      "}}+\\": 2153,
      "$.)": 2154,
      "riz": 2155,
      "Ġord": 2156,
      "Ġstra": 2157,
      "ĠrÃ©": 2158,
      "Ġplace": 2159,
      "ystem": 2160,
      "Ġcomplex": 2161,
      "è©¦": 2162,
      "Ãµ": 2163,
      "Ġter": 2164,
      "Ġhalf": 2165,
      "æİ": 2166,
      "ĠÑĥ": 2167,
      "Ġlong": 2168,
      "adas": 2169,
      "ĠAfter": 2170,
      "phi": 2171,
      "Ġpieces": 2172,
      "è§Ĵå½¢": 2173,
      "18": 2174,
      "ek": 2175,
      "1000": 2176,
      "ĠPoint": 2177,
      "Ġsystem": 2178,
      "Ð²Ð¾": 2179,
      "Ġequations": 2180,
      "Ġpiece": 2181,
      "edron": 2182,
      "CB": 2183,
      "ient": 2184,
      "ĠÐ»": 2185,
      "Ġparticip": 2186,
      "ĠPoints": 2187,
      "ä½¿å¾Ĺ": 2188,
      "Ãµes": 2189,
      "centre": 2190,
      "sa": 2191,
      "Ġround": 2192,
      "ement": 2193,
      "}^{\\": 2194,
      "Ġpuntos": 2195,
      "Ġpositivos": 2196,
      "Ġfigura": 2197,
      "Ġempty": 2198,
      "ä¸īè§Ĵå½¢": 2199,
      "45": 2200,
      "pre": 2201,
      "Ġfrac": 2202,
      "ird": 2203,
      "ÑģÑı": 2204,
      "éĢ": 2205,
      "Ġvari": 2206,
      "Ġza": 2207,
      "allen": 2208,
      "Ġordered": 2209,
      "Ġcontin": 2210,
      "Ġstarts": 2211,
      "Ġremaining": 2212,
      "è¶³": 2213,
      "Ġog": 2214,
      "ands": 2215,
      "Ġnumeri": 2216,
      "Ġques": 2217,
      "Ġequals": 2218,
      "Ġsoma": 2219,
      "Ġwrites": 2220,
      "CF": 2221,
      "Ġtut": 2222,
      "aris": 2223,
      "Ġrespect": 2224,
      "abc": 2225,
      "2022": 2226,
      "Ġintern": 2227,
      "Ġcentro": 2228,
      "Ġstrategy": 2229,
      "17": 2230,
      "fig": 2231,
      "Ġtien": 2232,
      "Ġ14": 2233,
      "Ġloc": 2234,
      "gg": 2235,
      "ral": 2236,
      "Ã¶": 2237,
      "Ġæ": 2238,
      "ÑģÐµ": 2239,
      "Ġinterval": 2240,
      "Ġpermutation": 2241,
      "Ġconsisting": 2242,
      "Ġpres": 2243,
      "vec": 2244,
      "Ġvers": 2245,
      "Ġext": 2246,
      "ÑĤÐ¸": 2247,
      "Ġprimes": 2248,
      "ĠÑĨ": 2249,
      "Ġmaximal": 2250,
      "ĠÐºÐ°": 2251,
      "Ġmultip": 2252,
      "posed": 2253,
      "Ġstraight": 2254,
      "Ġcircumcircles": 2255,
      "Ġ60": 2256,
      "CE": 2257,
      "Ġfact": 2258,
      "Ġconj": 2259,
      "ĠDem": 2260,
      "Ġcircums": 2261,
      "Ġnext": 2262,
      "ĠÐ½Ðµ": 2263,
      "Ġfigure": 2264,
      ")_{": 2265,
      "oc": 2266,
      "Ġdetermin": 2267,
      "tement": 2268,
      "ĠÐĶ": 2269,
      "Ġ**": 2270,
      "Ġpartition": 2271,
      "Ġdirection": 2272,
      "pmod": 2273,
      "å®": 2274,
      "ones": 2275,
      "ĠEvery": 2276,
      "Ġpossib": 2277,
      "iÅ¡Äį": 2278,
      "mente": 2279,
      "ori": 2280,
      "ĠÑĢÐ°": 2281,
      "Ġtel": 2282,
      "Ġcif": 2283,
      "Ġlab": 2284,
      "Ð²Ð¸": 2285,
      "Ġregion": 2286,
      "ĠèĪĩ": 2287,
      "Ġstarting": 2288,
      "Ġchessboard": 2289,
      "Ġratio": 2290,
      "\\%": 2291,
      "Ġray": 2292,
      "åħ©": 2293,
      "æĪĲ": 2294,
      "Ġalgaris": 2295,
      "Ġponto": 2296,
      "bers": 2297,
      "xis": 2298,
      "Ġpont": 2299,
      "Ġfa": 2300,
      "Ġfi": 2301,
      "ĠÐ³": 2302,
      "Ġformed": 2303,
      "Ġrows": 2304,
      "Ġusing": 2305,
      "ĠÑĤÐ¾Ñĩ": 2306,
      "Ġorigin": 2307,
      "Ġexceed": 2308,
      "Ġsupp": 2309,
      "Ð´Ð¸": 2310,
      "ĠHe": 2311,
      "Ġconstant": 2312,
      "Ġaltitudes": 2313,
      "Ġnombre": 2314,
      "Ġpentagon": 2315,
      "AH": 2316,
      "ben": 2317,
      "Ãł": 2318,
      "eld": 2319,
      "2015": 2320,
      "ĠestÃ¡": 2321,
      "Ġauf": 2322,
      "Ġwinning": 2323,
      "ls": 2324,
      "»¿": 2325,
      "Ġid": 2326,
      "Ġremo": 2327,
      "ĠConsider": 2328,
      "Ġcount": 2329,
      "Ġvalor": 2330,
      "PC": 2331,
      "au": 2332,
      "Ġsym": 2333,
      "Ġdans": 2334,
      "Ġtourn": 2335,
      "Ġcomo": 2336,
      "mer": 2337,
      "vers": 2338,
      "Ġtre": 2339,
      "elf": 2340,
      "ĠÑĺ": 2341,
      "Ġsize": 2342,
      "Ð¾Ð»ÑĮ": 2343,
      "Ġmis": 2344,
      "ĠÐ°": 2345,
      "Ã©m": 2346,
      "Ġdistrib": 2347,
      "2010": 2348,
      "Ġgreen": 2349,
      "Ġmenor": 2350,
      "ĠvÃ©r": 2351,
      "Ġtro": 2352,
      "round": 2353,
      "ĠnÃ£o": 2354,
      "angular": 2355,
      "Ġuntil": 2356,
      "2011": 2357,
      "2012": 2358,
      "Ãªs": 2359,
      "Ġgehe": 2360,
      "Ġappear": 2361,
      "Ġ:---:": 2362,
      "»¿è¶³": 2363,
      "22": 2364,
      "ever": 2365,
      "iÃ³n": 2366,
      "var": 2367,
      "Ġtet": 2368,
      "Ġthose": 2369,
      "^{-": 2370,
      "Ġforma": 2371,
      "Ġcover": 2372,
      "ä¸į": 2373,
      "Ġhold": 2374,
      "Ġenteros": 2375,
      "Ġremainder": 2376,
      "90": 2377,
      "BM": 2378,
      "ki": 2379,
      "sub": 2380,
      "ters": 2381,
      "Ġput": 2382,
      "Ã©s": 2383,
      "Ġstones": 2384,
      "Ġsod": 2385,
      "Ġigual": 2386,
      "Delta": 2387,
      "Ġextern": 2388,
      "Ġcha": 2389,
      "2017": 2390,
      "Ð¼Ð°": 2391,
      "Ġclos": 2392,
      "Ã¹": 2393,
      "ÈĻ": 2394,
      "Ġsums": 2395,
      "Ġstudent": 2396,
      "ado": 2397,
      "Ġday": 2398,
      "Ġbu": 2399,
      "bles": 2400,
      "Ġnumere": 2401,
      "unto": 2402,
      "Ġgu": 2403,
      "Ġpaper": 2404,
      "Ġnote": 2405,
      "Ġneed": 2406,
      "----": 2407,
      "sign": 2408,
      "tan": 2409,
      "Ġcity": 2410,
      "Ġjum": 2411,
      "Ġshare": 2412,
      "Ġ...,": 2413,
      "Ġtournament": 2414,
      "bre": 2415,
      "col": 2416,
      "ward": 2417,
      "ying": 2418,
      "Ġten": 2419,
      "Ġsing": 2420,
      "Ġcar": 2421,
      "itte": 2422,
      "Ġpositif": 2423,
      "ĠTwo": 2424,
      "Ġtakes": 2425,
      "Ġbisec": 2426,
      "Ġbisectors": 2427,
      "intersec": 2428,
      "æĺİ": 2429,
      "ata": 2430,
      "rie": 2431,
      "Ġ17": 2432,
      "2020": 2433,
      "Ġproblem": 2434,
      "ä¸Ĭ": 2435,
      "Å£i": 2436,
      "hedron": 2437,
      "Ġsw": 2438,
      "Ġreach": 2439,
      "ĠSoit": 2440,
      "veral": 2441,
      "Ġstr": 2442,
      "Ġ50": 2443,
      "AA": 2444,
      "bar": 2445,
      "éĥ½": 2446,
      "Ġtw": 2447,
      "Ġpas": 2448,
      "Ð¾ÐºÐ°": 2449,
      "Ġuno": 2450,
      "Ġplan": 2451,
      "Ġpositivo": 2452,
      "Ġplus": 2453,
      "resp": 2454,
      "ĠWhen": 2455,
      "2019": 2456,
      "Ð´Ð¾": 2457,
      "Ġfollows": 2458,
      "Do": 2459,
      "pet": 2460,
      "éĤ": 2461,
      "Ġsta": 2462,
      "Ġlist": 2463,
      "iones": 2464,
      "Ġcompute": 2465,
      "Ġcorre": 2466,
      "oid": 2467,
      "Ġtem": 2468,
      "Ġtop": 2469,
      "Ġwhile": 2470,
      "ilt": 2471,
      "ä»¥": 2472,
      "Ġrepresentation": 2473,
      "çĽ´ç·ļ": 2474,
      "kel": 2475,
      "Ġdur": 2476,
      "Ġroom": 2477,
      "ÈĽi": 2478,
      "Ġfaces": 2479,
      "hich": 2480,
      "ats": 2481,
      "Ġcross": 2482,
      "Ġfil": 2483,
      "Ġconfig": 2484,
      "olve": 2485,
      "ĠLa": 2486,
      "]$,": 2487,
      "lti": 2488,
      "åĩ": 2489,
      "inh": 2490,
      "Ġcase": 2491,
      "Ġ19": 2492,
      "Ġprojec": 2493,
      "Ġaltern": 2494,
      "Ġroot": 2495,
      "2014": 2496,
      "Äĥr": 2497,
      "Ġdelle": 2498,
      "Ġcorner": 2499,
      "Ġcolumns": 2500,
      "____": 2501,
      "Ġpontos": 2502,
      "ä¹": 2503,
      "Ġir": 2504,
      "rea": 2505,
      "isit": 2506,
      "Ġpower": 2507,
      "amo": 2508,
      "Ġgen": 2509,
      "Ġbound": 2510,
      "Ġdistan": 2511,
      "Ġsuma": 2512,
      "åĲĪ": 2513,
      "Ġunique": 2514,
      "AO": 2515,
      "Ġao": 2516,
      "Ġinde": 2517,
      "Ġfro": 2518,
      "ĠmÃ¡": 2519,
      "Ġdei": 2520,
      "Ġzij": 2521,
      "Ġ40": 2522,
      "Ġtangents": 2523,
      "Ġcorresp": 2524,
      "Ġgetallen": 2525,
      "Ġtrue": 2526,
      "Ġraz": 2527,
      "Ġbelow": 2528,
      "Ãªncia": 2529,
      "Ġprogres": 2530,
      "ior": 2531,
      "of": 2532,
      "|=": 2533,
      "ĠCA": 2534,
      "Ġfeet": 2535,
      "Ġalgarismos": 2536,
      "AI": 2537,
      "cl": 2538,
      "way": 2539,
      "å¿": 2540,
      "ating": 2541,
      "Ġdom": 2542,
      "una": 2543,
      "Ġdella": 2544,
      "ului": 2545,
      "ico": 2546,
      "Ġke": 2547,
      "Ġena": 2548,
      "uples": 2549,
      "2013": 2550,
      "oured": 2551,
      "ĠtrÃªs": 2552,
      "ambda": 2553,
      "CP": 2554,
      "Compute": 2555,
      "eige": 2556,
      "pro": 2557,
      "ene": 2558,
      "tside": 2559,
      "ĠBD": 2560,
      "Ġsoit": 2561,
      "oint": 2562,
      "Ġlarger": 2563,
      "ĠACB": 2564,
      "Ġsteps": 2565,
      "å¤ĸ": 2566,
      "Ġtrapezoid": 2567,
      "cts": 2568,
      "ug": 2569,
      "ĠÈĻ": 2570,
      "Ġthird": 2571,
      "Ġbegin": 2572,
      "ida": 2573,
      "ĠtriÃ¢ngulo": 2574,
      "Ġwithout": 2575,
      "Ġwhether": 2576,
      "ĠSi": 2577,
      "Ġrot": 2578,
      "ĠÐ±ÑĢÐ¾": 2579,
      "Ġincreasing": 2580,
      "Ġreplac": 2581,
      "ĠÑĺÐµ": 2582,
      "AX": 2583,
      "vi": 2584,
      "ora": 2585,
      "Ġrece": 2586,
      "}$?": 2587,
      "Ġassign": 2588,
      "ĠÐ´Ð°": 2589,
      "Ġrectangles": 2590,
      "Ð¿Ð¸Ñģ": 2591,
      "Ġsimilar": 2592,
      "tivamente": 2593,
      "éĤĬ": 2594,
      "AF": 2595,
      "KL": 2596,
      "lambda": 2597,
      "Ġbc": 2598,
      "under": 2599,
      "Ġonto": 2600,
      "Ð´Ð°": 2601,
      "Ġrectangular": 2602,
      "ĠAnd": 2603,
      "Ġarranged": 2604,
      "Ġvolum": 2605,
      "Ġinitial": 2606,
      "Ġogni": 2607,
      "Determin": 2608,
      "PB": 2609,
      "sed": 2610,
      "Ġaround": 2611,
      "che": 2612,
      "Ġrepe": 2613,
      "Ġgir": 2614,
      "Ġcoloured": 2615,
      "Ġquadrado": 2616,
      "Ġclass": 2617,
      "ĠÅ¡tevilo": 2618,
      "Ġneighb": 2619,
      "Ġtetra": 2620,
      "pt": 2621,
      "tre": 2622,
      "Ã´": 2623,
      "éĿ": 2624,
      "ghts": 2625,
      "ives": 2626,
      "Ġletters": 2627,
      "}-\\": 2628,
      "ĠÑģÐ¾": 2629,
      "åĪĹ": 2630,
      "Ġsodass": 2631,
      "hol": 2632,
      "Ġareas": 2633,
      "Ġris": 2634,
      "Ġtodas": 2635,
      "Ġoutside": 2636,
      "jo": 2637,
      "ils": 2638,
      "Ġcertain": 2639,
      "33": 2640,
      "wij": 2641,
      "}}\\": 2642,
      "ĭ¥": 2643,
      "ĴĮ": 2644,
      "Ġty": 2645,
      "_{\\": 2646,
      "Ġtown": 2647,
      "ĠnumÄĥr": 2648,
      "Ġcollection": 2649,
      "Ġscore": 2650,
      "Ġlattice": 2651,
      "$),": 2652,
      "fore": 2653,
      "Ġcut": 2654,
      "anto": 2655,
      "Ġwa": 2656,
      "Ġwould": 2657,
      "entes": 2658,
      "utes": 2659,
      "ĠEn": 2660,
      "Ġmembers": 2661,
      "èŃīæĺİ": 2662,
      "Ġblock": 2663,
      "Ġpositie": 2664,
      "Ġcong": 2665,
      "Ġki": 2666,
      "Ġchild": 2667,
      "Ġperform": 2668,
      "Ð´Ðµ": 2669,
      "ĠNo": 2670,
      "Ġåħ": 2671,
      "æİ¥": 2672,
      "Note": 2673,
      "con": 2674,
      "di": 2675,
      "pa": 2676,
      "æ±": 2677,
      "ito": 2678,
      "Ġ24": 2679,
      "Ġvale": 2680,
      "Ġseveral": 2681,
      "Ġnumbered": 2682,
      "Ġmidd": 2683,
      "Ġcircumscribed": 2684,
      "Ġcorrespond": 2685,
      "21": 2686,
      "Fie": 2687,
      "ches": 2688,
      "Ġstric": 2689,
      "Ġcuad": 2690,
      "ä»»": 2691,
      "Ġteams": 2692,
      "\\%$": 2693,
      "Ġsingle": 2694,
      "Ġstrictement": 2695,
      "Ġamo": 2696,
      "Ġspe": 2697,
      "Ġcalcul": 2698,
      "Ġwal": 2699,
      "Ġbeen": 2700,
      "000": 2701,
      "Ġcould": 2702,
      "atter": 2703,
      "2021": 2704,
      "Ġsolution": 2705,
      "Ġcoordinate": 2706,
      "199": 2707,
      "23": 2708,
      "aÃ§Ã£o": 2709,
      "jn": 2710,
      "ras": 2711,
      "ĠÄį": 2712,
      "Ġä½¿å¾Ĺ": 2713,
      "ana": 2714,
      "Ġbot": 2715,
      "ved": 2716,
      "Ġcircons": 2717,
      "ĠDrei": 2718,
      "Ġcand": 2719,
      "Ġpain": 2720,
      "2024": 2721,
      "Å¾i": 2722,
      "ĠZahl": 2723,
      "Ġhoriz": 2724,
      "good": 2725,
      "unghi": 2726,
      "Ġprogression": 2727,
      "Ġcirconscrit": 2728,
      "omet": 2729,
      "Ġconti": 2730,
      "Ġcoun": 2731,
      "antos": 2732,
      "Ġnonzero": 2733,
      "ious": 2734,
      "ĠÐ´Ðµ": 2735,
      "Ġconcyclic": 2736,
      "Ġnombres": 2737,
      "ferencia": 2738,
      "Ġconjunto": 2739,
      "varphi": 2740,
      ")-": 2741,
      "Ñĳ": 2742,
      "reis": 2743,
      "Ġface": 2744,
      "tim": 2745,
      "Ġvo": 2746,
      "Ġtrikotni": 2747,
      "Ġsobre": 2748,
      "2018": 2749,
      "Ġmeas": 2750,
      "Ġcuts": 2751,
      "}^+": 2752,
      "}_{>": 2753,
      "Ġdroite": 2754,
      "ĠÈĻi": 2755,
      "cont": 2756,
      "¯ı": 2757,
      "å¯": 2758,
      "atro": 2759,
      "Ġcam": 2760,
      "Ġinst": 2761,
      "Ð¼Ðµ": 2762,
      "Ġprev": 2763,
      "Ġ1000": 2764,
      "Ġcentered": 2765,
      "åĪ¥": 2766,
      "ÑĨÐ¸": 2767,
      "BF": 2768,
      "ties": 2769,
      "ĠAr": 2770,
      "rouver": 2771,
      "ĠÐĶÐ¾ÐºÐ°": 2772,
      "'t": 2773,
      "bf": 2774,
      "med": 2775,
      "rad": 2776,
      "tices": 2777,
      "theta": 2778,
      "Ġsia": 2779,
      "Ġsegmento": 2780,
      "ÑĩÐµ": 2781,
      "åħ¶": 2782,
      "Ġshown": 2783,
      "Ġcongru": 2784,
      "ez": 2785,
      "fel": 2786,
      "po": 2787,
      "}<": 2788,
      "Ġoff": 2789,
      "ĠfÃ¼r": 2790,
      "ÐºÑĥ": 2791,
      "ĠnatÃ¼r": 2792,
      "æľĢ": 2793,
      "emplo": 2794,
      "Ġsimult": 2795,
      "éĽĨ": 2796,
      "Ġsuppose": 2797,
      "ĠnatÃ¼rlich": 2798,
      "ĨåĪ¥": 2799,
      "Ġcare": 2800,
      "Ġwants": 2801,
      "une": 2802,
      "ircle": 2803,
      "ioni": 2804,
      "Ã§Ãµes": 2805,
      "çĽ¸": 2806,
      "Ġsymmet": 2807,
      "Ġti": 2808,
      "ĠdÃ©": 2809,
      "Ġni": 2810,
      "Ġfra": 2811,
      "ira": 2812,
      "itive": 2813,
      "}{(": 2814,
      "Ġtriunghi": 2815,
      "mathbf": 2816,
      "ĠPunkt": 2817,
      "ately": 2818,
      ")=\\": 2819,
      "2009": 2820,
      "Ġscale": 2821,
      "wijs": 2822,
      "Un": 2823,
      "cup": 2824,
      "the": 2825,
      "Â¿": 2826,
      "Ġfol": 2827,
      "ĠCan": 2828,
      "Ġkro": 2829,
      "Ġchange": 2830,
      "emos": 2831,
      "ĠpiÃ¹": 2832,
      "ÑįÐ³": 2833,
      "æĸ¹": 2834,
      "'$.": 2835,
      "27": 2836,
      "Ġsei": 2837,
      "ÐµÐ»": 2838,
      "Ġzwe": 2839,
      "ÃŃvel": 2840,
      "åĢĳ": 2841,
      "Ġgroups": 2842,
      "Ġduas": 2843,
      "ously": 2844,
      "Ġsitu": 2845,
      "ostrare": 2846,
      "Ġcubes": 2847,
      "Is": 2848,
      "Qu": 2849,
      "ov": 2850,
      "ool": 2851,
      "}|": 2852,
      "Ġsti": 2853,
      "ita": 2854,
      "chi": 2855,
      "less": 2856,
      "Ð½Ðµ": 2857,
      "ella": 2858,
      "ÐºÐµ": 2859,
      "Ã¡t": 2860,
      "Ġuniform": 2861,
      "ostrar": 2862,
      "ĠrÃ©els": 2863,
      "holds": 2864,
      "Ġhorizont": 2865,
      "DC": 2866,
      "iros": 2867,
      "punkt": 2868,
      "ets": 2869,
      "Ġlig": 2870,
      "Ġlying": 2871,
      "Ġposition": 2872,
      "ima": 2873,
      "Ġexpec": 2874,
      "ÑĤÑĮ": 2875,
      "Ġ45": 2876,
      "Ġescrit": 2877,
      "Ġminimal": 2878,
      "Ġfinal": 2879,
      "Ð½ÑĭÑħ": 2880,
      "Ġpositifs": 2881,
      "gu": 2882,
      "å¹": 2883,
      "çķ": 2884,
      "Ġtres": 2885,
      "Ġavec": 2886,
      "ark": 2887,
      "Ġgilt": 2888,
      "Ġends": 2889,
      "Ð¶Ð¸ÑĤÐµ": 2890,
      "BB": 2891,
      "PA": 2892,
      "ku": 2893,
      "è¡": 2894,
      "Ġaan": 2895,
      "its": 2896,
      "aciÃ³n": 2897,
      "ceil": 2898,
      "Ġcome": 2899,
      "ä¸ĭ": 2900,
      "Ġtales": 2901,
      "Ð¼Ð¸": 2902,
      "ĠÐ¿ÑĢÐ¾": 2903,
      "ĠÐ¸Ð·": 2904,
      "Ã¢t": 2905,
      "Ġconsidered": 2906,
      "Ġtiene": 2907,
      "Ġconfigur": 2908,
      "Ġexpected": 2909,
      "(-": 2910,
      "DF": 2911,
      "with": 2912,
      "Ã²": 2913,
      "ini": 2914,
      "Ġsph": 2915,
      "tif": 2916,
      "area": 2917,
      "ä¸Ķ": 2918,
      "ixo": 2919,
      "Ġoperation": 2920,
      "ÑĥÐ³Ð¾Ð»ÑĮ": 2921,
      "Ġcifre": 2922,
      "Ġidenti": 2923,
      "*,": 2924,
      "Here": 2925,
      "ris": 2926,
      "ser": 2927,
      "éĻ": 2928,
      "ĠdÃŃ": 2929,
      "ese": 2930,
      "Ġsuc": 2931,
      "Ġdem": 2932,
      "Ġkni": 2933,
      "cess": 2934,
      "Ġtriangolo": 2935,
      "oliko": 2936,
      "ih": 2937,
      "çĶ": 2938,
      "Ġpra": 2939,
      "Ġword": 2940,
      "ades": 2941,
      "Ġtriple": 2942,
      "imostrare": 2943,
      "Ġxy": 2944,
      "ares": 2945,
      "ĠEx": 2946,
      "ellow": 2947,
      "overrightarrow": 2948,
      "esso": 2949,
      "Ð¶Ð½Ð¾": 2950,
      "Ġschool": 2951,
      "Ġfraction": 2952,
      "Ġversch": 2953,
      "å®ļ": 2954,
      "Ġtetrahedron": 2955,
      "ele": 2956,
      "gal": 2957,
      "vent": 2958,
      "Ñī": 2959,
      "iner": 2960,
      "Ġ(\\": 2961,
      "Ġima": 2962,
      "gono": 2963,
      "Ġmatri": 2964,
      "Ġstrictly": 2965,
      "Ġprevious": 2966,
      "æ¯ı": 2967,
      "èĪĩ": 2968,
      "Ġsign": 2969,
      "Ġyellow": 2970,
      "ula": 2971,
      "ick": 2972,
      "ĠDetermin": 2973,
      "Ġmakes": 2974,
      "Ġnone": 2975,
      "weise": 2976,
      "lockwise": 2977,
      "ĠAssume": 2978,
      "Ġquadratic": 2979,
      "Ġcountry": 2980,
      "å¿ĥ": 2981,
      "Ġsimultane": 2982,
      "CM": 2983,
      "Each": 2984,
      "èĭ¥": 2985,
      "quer": 2986,
      "Ġtog": 2987,
      "itially": 2988,
      "Ġvs": 2989,
      "ĠShe": 2990,
      "Ġproof": 2991,
      "forall": 2992,
      "Ġentero": 2993,
      "Ġoperations": 2994,
      "Ġsempre": 2995,
      "Ġabove": 2996,
      "wers": 2997,
      "Ġot": 2998,
      "Ġcel": 2999,
      "Ġbes": 3000,
      "Ġpod": 3001,
      "ices": 3002,
      "ĠSch": 3003,
      "Ð¸Ð¹": 3004,
      "Ġstran": 3005,
      "Ġast": 3006,
      "Ġmoving": 3007,
      "Ġjoin": 3008,
      "ĠZeige": 3009,
      "ĠÐ²Ñĭ": 3010,
      "Ġcircunferencia": 3011,
      "æ±Ĥ": 3012,
      "$'": 3013,
      "AN": 3014,
      "Ġbeing": 3015,
      "Ġbefore": 3016,
      "Ġals": 3017,
      "Ġvertical": 3018,
      "Ġdisj": 3019,
      "Ġrandomly": 3020,
      "Ġbisects": 3021,
      "Ġzijn": 3022,
      "Ġbeginning": 3023,
      "Solve": 3024,
      "aixo": 3025,
      "gen": 3026,
      "km": 3027,
      "åĽ": 3028,
      "æł": 3029,
      "Ġpal": 3030,
      "Ġback": 3031,
      "ided": 3032,
      "Ġvisit": 3033,
      "ÑĤÑĥ": 3034,
      "pecial": 3035,
      "Ġpile": 3036,
      "ĠÐ¿ÑĢÐ¸": 3037,
      "Ġexpressed": 3038,
      "Ġcolours": 3039,
      "Ġpolinom": 3040,
      "ĠDefine": 3041,
      "Ġcontinu": 3042,
      "Ġvolume": 3043,
      "tom": 3044,
      "Ġant": 3045,
      "acÄĥ": 3046,
      "ĠOne": 3047,
      "Ġshap": 3048,
      "Sei": 3049,
      "ĠÃ¡rea": 3050,
      "Ġmodulo": 3051,
      "Ġvariable": 3052,
      "ĠvÃ©rtices": 3053,
      "ĠÐ±ÑĢÐ¾Ñĺ": 3054,
      "bc": 3055,
      "åī": 3056,
      "ann": 3057,
      "Ġmon": 3058,
      "Ġlam": 3059,
      "Ġrec": 3060,
      "ĠÐŁ": 3061,
      "Ġatt": 3062,
      "ÐµÑĢÐµ": 3063,
      "egen": 3064,
      "Ġens": 3065,
      "Ġweigh": 3066,
      "uding": 3067,
      "ostre": 3068,
      "Ġacc": 3069,
      "cks": 3070,
      "Sea": 3071,
      "Ġcenters": 3072,
      "Ġendpoin": 3073,
      "ĠâĢĶ": 3074,
      "æİ¥åľĵ": 3075,
      "Ġastfel": 3076,
      "AK": 3077,
      "As": 3078,
      "En": 3079,
      "Th": 3080,
      "has": 3081,
      "nd": 3082,
      "ites": 3083,
      "uno": 3084,
      "Ð¾ÑĤ": 3085,
      "Ð½Ñĥ": 3086,
      "ĠPunk": 3087,
      "Ġcompet": 3088,
      "ĠYou": 3089,
      "Å¾n": 3090,
      "Ġpositivi": 3091,
      "valu": 3092,
      "Ġneighbo": 3093,
      "Ġgehele": 3094,
      "å¯¦": 3095,
      "Ġcongruent": 3096,
      "tr": 3097,
      "éł": 3098,
      "Ġcir": 3099,
      "matic": 3100,
      "Ġmean": 3101,
      "ciÃ³n": 3102,
      "erior": 3103,
      "Ð·Ð°": 3104,
      "}^*": 3105,
      "Ġsemic": 3106,
      "Ġcoinc": 3107,
      "åı¯": 3108,
      "intersection": 3109,
      "ÑĥÐ³Ð¾Ð»ÑĮÐ½Ð¸": 3110,
      "cÃ¢t": 3111,
      "uri": 3112,
      "ually": 3113,
      "Ġaut": 3114,
      "Ġnu": 3115,
      "ABD": 3116,
      "Ġhy": 3117,
      "Ġqui": 3118,
      "Ġexten": 3119,
      "Ġrespectivamente": 3120,
      "Ġjog": 3121,
      "ĠÃ®ncÃ¢t": 3122,
      "ĠÐ¼Ð¾": 3123,
      "Ġizra": 3124,
      "Ġcentroid": 3125,
      "Ã¡tero": 3126,
      "AQ": 3127,
      "CC": 3128,
      "ya": 3129,
      "Ġfich": 3130,
      "Ġ21": 3131,
      "ames": 3132,
      "adrat": 3133,
      "Ã©t": 3134,
      "Ġchang": 3135,
      "Ġchord": 3136,
      "Ġmais": 3137,
      "iod": 3138,
      "Ġchoice": 3139,
      "ÑĩÐ¸": 3140,
      "Ġvez": 3141,
      "Ġpuede": 3142,
      "Ã¨re": 3143,
      "Ġgrand": 3144,
      "Ġcoordinates": 3145,
      "Ġtogether": 3146,
      "ger": 3147,
      "gend": 3148,
      "Ġtor": 3149,
      "iste": 3150,
      "itt": 3151,
      "race": 3152,
      "amos": 3153,
      "Ġexp": 3154,
      "antes": 3155,
      "iii": 3156,
      "kaÅ¾i": 3157,
      "---|": 3158,
      "åŃĲ": 3159,
      "Ġabout": 3160,
      "Ġtwice": 3161,
      "éĽĨåĲĪ": 3162,
      "ĠdÃŃgit": 3163,
      ".,": 3164,
      "op": 3165,
      "ç¨": 3166,
      "Ġaver": 3167,
      "leich": 3168,
      "Ġsni": 3169,
      "quier": 3170,
      "Ġquanti": 3171,
      "Ġparale": 3172,
      "Ġstat": 3173,
      "ĠThey": 3174,
      "Ġroads": 3175,
      "Ġweight": 3176,
      "pping": 3177,
      "ĠGer": 3178,
      "2008": 3179,
      "Ã³s": 3180,
      "Ġsaid": 3181,
      "Ġinternal": 3182,
      "ä¹ĭ": 3183,
      "Ġzwei": 3184,
      "Ġextension": 3185,
      "Ġsnij": 3186,
      "De": 3187,
      "Ġcases": 3188,
      "Ġlow": 3189,
      "Ġpode": 3190,
      "Ġga": 3191,
      "ota": 3192,
      "Ġresul": 3193,
      "Ġboys": 3194,
      "emble": 3195,
      "Ġcircumcentre": 3196,
      "Ġdistintos": 3197,
      "ĠçļĦå¤ĸ": 3198,
      "Ġigu": 3199,
      "36": 3200,
      "als": 3201,
      "Ġlead": 3202,
      "Ġexemplo": 3203,
      "Ġcoup": 3204,
      "loc": 3205,
      "ements": 3206,
      "Ġdou": 3207,
      "Ġlijn": 3208,
      "Ġnonempty": 3209,
      "Ġ2013": 3210,
      "ĠpuÃ²": 3211,
      "ĠUm": 3212,
      "XYZ": 3213,
      "Ġcorrect": 3214,
      "BH": 3215,
      "Var": 3216,
      "av": 3217,
      "cte": 3218,
      "hl": 3219,
      "orte": 3220,
      "Ġsua": 3221,
      "Ġintero": 3222,
      "Ġzap": 3223,
      "Ġ2010": 3224,
      "Ġminute": 3225,
      "ĠLine": 3226,
      "ÃŃr": 3227,
      "Ġ2016": 3228,
      "Ġregard": 3229,
      "Ġproperties": 3230,
      "Ġ2023": 3231,
      "Ġbelongs": 3232,
      "Ġpositieve": 3233,
      "Ġbottom": 3234,
      "Ġscalene": 3235,
      "Varangle": 3236,
      "Fig": 3237,
      "sim": 3238,
      "ĺåľ¨": 3239,
      "Ġci": 3240,
      "riment": 3241,
      "Ġmade": 3242,
      "Ġsea": 3243,
      "ili": 3244,
      "Ð¼Ð¾": 3245,
      "Ġcomput": 3246,
      "Ġcompriment": 3247,
      "Ġ2015": 3248,
      "Ġ2018": 3249,
      "Ġgetal": 3250,
      "Ġcomplete": 3251,
      "Ġschne": 3252,
      "Ġinitially": 3253,
      "ĠBewijs": 3254,
      "äº¤æĸ¼": 3255,
      "Ġchaque": 3256,
      "Ġindepend": 3257,
      "Ġuniformly": 3258,
      "=\\{": 3259,
      "ex": 3260,
      "oient": 3261,
      "uest": 3262,
      "çµ": 3263,
      "Ġbig": 3264,
      "Ġtoken": 3265,
      "Ġhad": 3266,
      "Ġstand": 3267,
      "Ġtale": 3268,
      "Ġtangente": 3269,
      "ĠĠĠ": 3270,
      "2007": 3271,
      "Ġarray": 3272,
      "Ġcasill": 3273,
      "Ġamount": 3274,
      "ĠÐĶÐ¾ÐºÐ°Ð¶Ð¸ÑĤÐµ": 3275,
      "$\\": 3276,
      "|\\": 3277,
      "}}$.": 3278,
      "Ġpel": 3279,
      "enc": 3280,
      "Ġbin": 3281,
      "Ġbol": 3282,
      "Ġnara": 3283,
      "Ġmatter": 3284,
      "Ã©n": 3285,
      "Ġparts": 3286,
      "ĠÃ¢": 3287,
      "Ġmaior": 3288,
      "Ġplays": 3289,
      "}^{+": 3290,
      "Ġitself": 3291,
      "Ġrecta": 3292,
      "Ġvel": 3293,
      "Ġmeasure": 3294,
      "OA": 3295,
      "ik": 3296,
      "lim": 3297,
      "Ġsin": 3298,
      "Ġsind": 3299,
      "Ġpositions": 3300,
      "uring": 3301,
      "Ġrays": 3302,
      "ÑģÑĤÐ°": 3303,
      "Ġcheck": 3304,
      "Ġdoor": 3305,
      "ĠMar": 3306,
      "2003": 3307,
      "Ġconsecutiv": 3308,
      "xyz": 3309,
      "Ġgeomet": 3310,
      "Ġabaixo": 3311,
      "ÑģÑĤÐ¸": 3312,
      "onstant": 3313,
      "Ġtutti": 3314,
      "ĠkroÅ¾n": 3315,
      "Ġsimultaneously": 3316,
      "æł¼": 3317,
      "å¯¦æķ¸": 3318,
      "Ġnarav": 3319,
      "',": 3320,
      "ules": 3321,
      "ĠPro": 3322,
      "Ġbal": 3323,
      "ĠPor": 3324,
      "ĠMostre": 3325,
      "Ġsatisfied": 3326,
      "Ġplayed": 3327,
      "ĠåĪ": 3328,
      "Ã§a": 3329,
      "Ġused": 3330,
      "ĠÅ¡tevila": 3331,
      "Ġæ»¿è¶³": 3332,
      "Ġinstance": 3333,
      "Ġtiles": 3334,
      "Ġcirkel": 3335,
      "ÃŃrc": 3336,
      "Sia": 3337,
      "å·": 3338,
      "Ġcm": 3339,
      "rees": 3340,
      "onferen": 3341,
      "Ġmil": 3342,
      "Ġcirconferen": 3343,
      "Ġprocess": 3344,
      "Ġparab": 3345,
      "Ġchi": 3346,
      "Ġplaying": 3347,
      "ĠÑģÑĥ": 3348,
      "Ġ2014": 3349,
      "Ġplaces": 3350,
      "Ġmarbles": 3351,
      "Ġtrans": 3352,
      "Ġselected": 3353,
      "Ġwaar": 3354,
      "Ġspeed": 3355,
      "Trouver": 3356,
      "\\{\\": 3357,
      "den": 3358,
      "fi": 3359,
      "gli": 3360,
      "ĿÐ°": 3361,
      "inos": 3362,
      "ert": 3363,
      "ati": 3364,
      "Ġnor": 3365,
      "Ġneg": 3366,
      "oring": 3367,
      "Ġhim": 3368,
      "Ġdifer": 3369,
      "Ġinteiros": 3370,
      "Ġrun": 3371,
      "Ġcoprime": 3372,
      "Ġperiod": 3373,
      "ented": 3374,
      "ĠåĢ": 3375,
      "Ġ2017": 3376,
      "Ġshould": 3377,
      "ÑĺÐ°": 3378,
      "å°įæĸ¼": 3379,
      "Ġinclus": 3380,
      "Ġfrog": 3381,
      "Ġsymmetric": 3382,
      "Ġdisjoint": 3383,
      "*.": 3384,
      "¢Ŀ": 3385,
      "Ġped": 3386,
      "idade": 3387,
      "ady": 3388,
      "ĠDimostrare": 3389,
      "ÑĢÑı": 3390,
      "Ġotherwise": 3391,
      "Ġ2011": 3392,
      "2006": 3393,
      "ĠÐ¾ÑĤ": 3394,
      "Ġpeut": 3395,
      "ĠJo": 3396,
      "Ð¾Ð»Ð¾": 3397,
      "Ġmenos": 3398,
      "Ġä¸Ķ": 3399,
      "Ġmember": 3400,
      "Ð»ÑĮÐ½Ð¾": 3401,
      "Ġfactors": 3402,
      "Ġregardless": 3403,
      "28": 3404,
      "BI": 3405,
      "pes": 3406,
      "ÐĶ": 3407,
      "anno": 3408,
      "Ġnine": 3409,
      "Ġlin": 3410,
      "Ġ27": 3411,
      "Ġlea": 3412,
      "Ġparte": 3413,
      "Ġvalores": 3414,
      "ĠÃº": 3415,
      "Ġtaken": 3416,
      "Ġesc": 3417,
      "Ãºlti": 3418,
      "Ġloses": 3419,
      "ĠÐ¾Ðº": 3420,
      "123": 3421,
      "Ġdiamet": 3422,
      "ÑģÑĤÑĮ": 3423,
      "ĠÑĤÐ¾Ð¾": 3424,
      "></": 3425,
      "ĠÐ±Ð°Ð¹": 3426,
      "ĠDoes": 3427,
      "Ġexternal": 3428,
      "Ġstring": 3429,
      "Ġassigned": 3430,
      "Ġpainted": 3431,
      "$:": 3432,
      ")|": 3433,
      "Be": 3434,
      "\\},": 3435,
      "nen": 3436,
      "éĸ": 3437,
      "Ġach": 3438,
      "Ġsich": 3439,
      "teq": 3440,
      "Ġ120": 3441,
      "Ġcoloc": 3442,
      "alls": 3443,
      "Äįun": 3444,
      "Ġfunc": 3445,
      "ĠRe": 3446,
      "ĠÐ´Ð¾": 3447,
      "ä½į": 3448,
      "redn": 3449,
      "å¤§": 3450,
      "éģİ": 3451,
      "Ġjump": 3452,
      "éĿ¢": 3453,
      "Ġcorresponding": 3454,
      "Ġaverage": 3455,
      "brace": 3456,
      "Ġom": 3457,
      "Ġmut": 3458,
      "Ġnumer": 3459,
      "iden": 3460,
      "Ġhay": 3461,
      "Ġpropri": 3462,
      "Ġprimo": 3463,
      "allar": 3464,
      "Ġlike": 3465,
      "essa": 3466,
      "ĠLu": 3467,
      "Ġlarge": 3468,
      "ference": 3469,
      "Ġconnect": 3470,
      "ĠpossÃŃvel": 3471,
      "Ġreceive": 3472,
      "contre": 3473,
      "ĠdÃŃgitos": 3474,
      "ĠåĢĭ": 3475,
      "</": 3476,
      "iss": 3477,
      "Proposed": 3478,
      "ently": 3479,
      "Ġprim": 3480,
      "101": 3481,
      "Ġgoes": 3482,
      "Ġä¸Ĭ": 3483,
      "Ġoriginal": 3484,
      "Ġswit": 3485,
      "Ġdurch": 3486,
      "32": 3487,
      "OC": 3488,
      "PD": 3489,
      "ba": 3490,
      "ido": 3491,
      "kens": 3492,
      "lle": 3493,
      "ĠdacÄĥ": 3494,
      "rov": 3495,
      "ars": 3496,
      "Ġtokens": 3497,
      "Ġposible": 3498,
      "Ġintegral": 3499,
      "Ġ22": 3500,
      "ĠAna": 3501,
      "ĠTe": 3502,
      "oten": 3503,
      "sive": 3504,
      "Ġlabe": 3505,
      "Ġpaint": 3506,
      "Ġsomma": 3507,
      "Ġheight": 3508,
      "Ġcontained": 3509,
      "Ġtravel": 3510,
      "å°ı": 3511,
      "Ġarrangement": 3512,
      "Ò¯Ò¯": 3513,
      "Ġmesma": 3514,
      "Ġexceeding": 3515,
      "Ġrispet": 3516,
      "timme": 3517,
      "Ġvoor": 3518,
      "Ġconfiguration": 3519,
      "Ġidentical": 3520,
      "Ġsucces": 3521,
      "Ġlabeled": 3522,
      ")!": 3523,
      "BQ": 3524,
      "EC": 3525,
      "èĥ½": 3526,
      "Ġtell": 3527,
      "ern": 3528,
      "ativ": 3529,
      "Ġmom": 3530,
      "Ġdell": 3531,
      "ador": 3532,
      "Ġzod": 3533,
      "Ġju": 3534,
      "Ġesta": 3535,
      "Ġacross": 3536,
      "ÑĤÐ¾ÑĢÐ¾": 3537,
      "2005": 3538,
      "Ġobt": 3539,
      "ĠÐ²Ð¾": 3540,
      "Ġ2022": 3541,
      "Ġabs": 3542,
      "Ġdegrees": 3543,
      "Ġexcept": 3544,
      "Ġmesmo": 3545,
      "Ġtabl": 3546,
      "Ġselect": 3547,
      "Ġresulting": 3548,
      "ĠÑĢÐ°Ð·": 3549,
      "Ġdistances": 3550,
      "van": 3551,
      "å¼": 3552,
      "cha": 3553,
      "Ġsuite": 3554,
      "Ġseja": 3555,
      "Äĥta": 3556,
      "seteq": 3557,
      "ĠÑį": 3558,
      "Ð³Ð°": 3559,
      "Ġnever": 3560,
      "ĠLe": 3561,
      "Ġå°": 3562,
      "Ġcommitte": 3563,
      "åħ§": 3564,
      "Ġdisp": 3565,
      "Ġimp": 3566,
      "Ġtali": 3567,
      "Ġflights": 3568,
      "ĠÑĩÐ¸ÑģÐµÐ»": 3569,
      "Ġtype": 3570,
      "Ġsphere": 3571,
      "Ġcomprimento": 3572,
      "64": 3573,
      "ED": 3574,
      "ake": 3575,
      "constant": 3576,
      "punt": 3577,
      "square": 3578,
      "Ġaz": 3579,
      "Ġcyc": 3580,
      "Ġell": 3581,
      "ĠmÃºlti": 3582,
      "arante": 3583,
      "Ġbec": 3584,
      "unds": 3585,
      "Ġones": 3586,
      "Ġsuper": 3587,
      "Ġvredn": 3588,
      "ami": 3589,
      "Ġcircular": 3590,
      "ĠCh": 3591,
      "Ġroad": 3592,
      "star": 3593,
      "gonal": 3594,
      "Ġhapp": 3595,
      "Ġ2020": 3596,
      "Ġperpendiculars": 3597,
      "ĠInitially": 3598,
      "Ġnaj": 3599,
      "iano": 3600,
      "Ġlato": 3601,
      "Ġarcs": 3602,
      "ĠThis": 3603,
      "subseteq": 3604,
      "Ġguarante": 3605,
      "))$": 3606,
      "AEF": 3607,
      "ull": 3608,
      "æ¢Ŀ": 3609,
      "ŀĤ": 3610,
      "Ġdin": 3611,
      "ries": 3612,
      "Ġwro": 3613,
      "}$;": 3614,
      "Ġdeve": 3615,
      "Ġdepend": 3616,
      "erminer": 3617,
      "abe": 3618,
      "ĠåĴĮ": 3619,
      "Ġclub": 3620,
      "possi": 3621,
      "Ġ2024": 3622,
      "Ġdroites": 3623,
      "Ġtabule": 3624,
      "è©¦èŃī": 3625,
      "Ġmultiplic": 3626,
      "Ġappears": 3627,
      "underbrace": 3628,
      "ĠçļĦå¤ĸæİ¥åľĵ": 3629,
      "Ġmoment": 3630,
      ")+\\": 3631,
      "67": 3632,
      "When": 3633,
      "ea": 3634,
      "iÅ¡": 3635,
      "å¥": 3636,
      "ĠÂ¿": 3637,
      "Ġax": 3638,
      "Ġsig": 3639,
      "Ġseri": 3640,
      "Ġeight": 3641,
      "rio": 3642,
      "Ġmass": 3643,
      "Ġreales": 3644,
      "Ð°ÑĢ": 3645,
      "Ġyear": 3646,
      "ĠDie": 3647,
      "Ġ$(\\": 3648,
      "tau": 3649,
      "uple": 3650,
      "Ġjo": 3651,
      "oints": 3652,
      "Ġverif": 3653,
      "Ġcui": 3654,
      "Ġinscrit": 3655,
      "Ġpunti": 3656,
      "Ġ2019": 3657,
      "Ġturned": 3658,
      "Ġpersons": 3659,
      "ÑĪÐµ": 3660,
      "ĠÐºÐ°Ð¶": 3661,
      "ĠmÃ¡x": 3662,
      "Ð¿Ð¸ÑģÐ°Ð½": 3663,
      "Ġtowns": 3664,
      "Ġchildren": 3665,
      "Ġaus": 3666,
      "inte": 3667,
      "era": 3668,
      "atamente": 3669,
      "Ġecu": 3670,
      "Ġsus": 3671,
      "Ġseu": 3672,
      "Ġunder": 3673,
      "Ġzeros": 3674,
      "ĠEs": 3675,
      "Ġ2012": 3676,
      "Ġcorta": 3677,
      "ÑįÑĢ": 3678,
      "zahl": 3679,
      "999": 3680,
      "Ġfinitely": 3681,
      "Ġ2021": 3682,
      "âĢĿ": 3683,
      "voor": 3684,
      "prod": 3685,
      "å¹³": 3686,
      "Ġaccord": 3687,
      "Ġtabuleiro": 3688,
      "Alice": 3689,
      "CI": 3690,
      "Es": 3691,
      "åĭ": 3692,
      "Ġæĺ¯": 3693,
      "ĻĤ": 3694,
      "}{|": 3695,
      "ĠAll": 3696,
      "uto": 3697,
      "ĠPara": 3698,
      "åĲĮ": 3699,
      "å¤ļ": 3700,
      "Ġpentru": 3701,
      "ÑĢÑĥÐ¶Ð½Ð¾": 3702,
      "Ġtutte": 3703,
      "Ġdistribu": 3704,
      "Ġgener": 3705,
      "ĠenaÄį": 3706,
      "radius": 3707,
      "Ġparabola": 3708,
      "Ġachie": 3709,
      "Ġtablero": 3710,
      "120": 3711,
      "At": 3712,
      "DEF": 3713,
      "cas": 3714,
      "plo": 3715,
      "ÐĴ": 3716,
      "Ġsunt": 3717,
      "ĠcÃŃrc": 3718,
      "ready": 3719,
      "ords": 3720,
      "Ġ23": 3721,
      "aden": 3722,
      "Ġalready": 3723,
      "Ð»Ñı": 3724,
      "Ãºn": 3725,
      "ĠLines": 3726,
      "nih": 3727,
      "Ġloro": 3728,
      "ibt": 3729,
      "ĠDokaÅ¾i": 3730,
      "Ġcovered": 3731,
      "Ġprojection": 3732,
      "Ġescritos": 3733,
      "Ġinclusive": 3734,
      "80": 3735,
      "MO": 3736,
      "Montrer": 3737,
      "Naj": 3738,
      "ked": 3739,
      "zra": 3740,
      "{|": 3741,
      "|}": 3742,
      "}[": 3743,
      "æ»¿è¶³": 3744,
      "ĳåĢĳ": 3745,
      "enn": 3746,
      "ani": 3747,
      "Ġlim": 3748,
      "Ġ36": 3749,
      "Ġkv": 3750,
      "Ġrules": 3751,
      "Ġcomb": 3752,
      "ĠÑĪ": 3753,
      "cias": 3754,
      "Ġ99": 3755,
      "Ġgets": 3756,
      "Ã¢ngulos": 3757,
      "Ġcoefficient": 3758,
      "Ãªme": 3759,
      "Ġmathe": 3760,
      "æĪĳåĢĳ": 3761,
      "Ġspace": 3762,
      "Ġpermutations": 3763,
      "onstra": 3764,
      "åŃĺåľ¨": 3765,
      "centers": 3766,
      "Ġquestion": 3767,
      "ĠDemostrar": 3768,
      "iÅ¡Äįi": 3769,
      "Ġclosed": 3770,
      "Ġzodat": 3771,
      "!$": 3772,
      "AT": 3773,
      "BX": 3774,
      "Points": 3775,
      "gy": 3776,
      "zen": 3777,
      "½æķ¸": 3778,
      "á»": 3779,
      "Ġcin": 3780,
      "Ġdal": 3781,
      "osed": 3782,
      "Ġwell": 3783,
      "indrom": 3784,
      "Ġplano": 3785,
      "ilon": 3786,
      "Ġparty": 3787,
      "Ġko": 3788,
      "lij": 3789,
      "Ð½Ð¾Ð¹": 3790,
      "Ġradii": 3791,
      "entiers": 3792,
      "hoek": 3793,
      "Ġcontest": 3794,
      "äºº": 3795,
      "ĠÑĤÑĢÐµ": 3796,
      "Ġpartitioned": 3797,
      "Ġexternally": 3798,
      "Does": 3799,
      "åĩº": 3800,
      "Ġgirls": 3801,
      "Ġendpoints": 3802,
      "Um": 3803,
      "kci": 3804,
      "ÑĦ": 3805,
      "Ġtwe": 3806,
      "Ġair": 3807,
      "Ġspl": 3808,
      "Ġpes": 3809,
      "Ġcart": 3810,
      "Ġcarr": 3811,
      "Ġfl": 3812,
      "Ġfur": 3813,
      "Ġfill": 3814,
      "chen": 3815,
      ")$?": 3816,
      "ĠSt": 3817,
      "ÑĤÑĢÐ°": 3818,
      "ĠFur": 3819,
      "Ġrest": 3820,
      "Ġkle": 3821,
      "Ġreals": 3822,
      "Ð´Ñĭ": 3823,
      "ÑĭÑħ": 3824,
      "Ġpunt": 3825,
      "Ð¶Ðµ": 3826,
      "Ġsecon": 3827,
      "psilon": 3828,
      "Ġmatch": 3829,
      "ÑĪÐ¸": 3830,
      "ĠÑĤÐ°Ðº": 3831,
      "Ġconstruct": 3832,
      "Ġconstructed": 3833,
      "è©¦æ±Ĥ": 3834,
      "Ġdomino": 3835,
      "Ġknight": 3836,
      "ÑĤÑĥÑĢÐ°": 3837,
      "Ã©terminer": 3838,
      "Ġaccording": 3839,
      ")}$": 3840,
      "CH": 3841,
      "MP": 3842,
      "dec": 3843,
      "sec": 3844,
      "æĦ": 3845,
      "ç«": 3846,
      "è·": 3847,
      "lex": 3848,
      "Ġcost": 3849,
      "ret": 3850,
      "Ġwant": 3851,
      "^{(": 3852,
      "Ġdice": 3853,
      "ĠEm": 3854,
      "}\\}$": 3855,
      "ĠWhich": 3856,
      "Ġmag": 3857,
      "ABCDEF": 3858,
      "Ġbutt": 3859,
      "Ð±ÑĢÐ°": 3860,
      "Ġvect": 3861,
      "ĠQuantos": 3862,
      "azione": 3863,
      "Ġoccup": 3864,
      "Ġregions": 3865,
      "wards": 3866,
      "inhos": 3867,
      "Ġneighboring": 3868,
      "Ġblocks": 3869,
      "ĠnatÃ¼rliche": 3870,
      "Ġgeometric": 3871,
      "Äįunaj": 3872,
      "Ġå°į": 3873,
      "))=": 3874,
      "75": 3875,
      "kl": 3876,
      "rar": 3877,
      "|,": 3878,
      "çĦ": 3879,
      "Ġsal": 3880,
      "Ġcap": 3881,
      "Ġclockwise": 3882,
      "Ġbag": 3883,
      "asc": 3884,
      "Ġreale": 3885,
      "Ġhat": 3886,
      "Ġ28": 3887,
      "imi": 3888,
      "Ġexatamente": 3889,
      "ivale": 3890,
      "Ġletter": 3891,
      "Ġheads": 3892,
      "ĠHere": 3893,
      "Ġpiles": 3894,
      "ÑįÐ½": 3895,
      "Ġuse": 3896,
      "åĪ°": 3897,
      "Ġmayor": 3898,
      "Ġdirect": 3899,
      "ĠUn": 3900,
      "ĠâĢľ": 3901,
      "Ġwords": 3902,
      "ggio": 3903,
      "Ġfactor": 3904,
      "Ġjumps": 3905,
      "Ġprojections": 3906,
      "Ġboundary": 3907,
      "åħ¶ä¸Ń": 3908,
      "valuate": 3909,
      "Ġvelja": 3910,
      ".\"": 3911,
      "GH": 3912,
      "jet": 3913,
      "tas": 3914,
      "ures": 3915,
      "¦Ĥ": 3916,
      "è³": 3917,
      "Ġaway": 3918,
      "Ġdan": 3919,
      "Ġdid": 3920,
      "Ġdrie": 3921,
      "Ġvsa": 3922,
      "ĠÐļ": 3923,
      "Ġgio": 3924,
      "Ġyz": 3925,
      "ĠSim": 3926,
      "ĠDE": 3927,
      "Ġzu": 3928,
      "ĠsequÃªncia": 3929,
      "Ġpassant": 3930,
      "Sean": 3931,
      "ogd": 3932,
      "Ġcircunfer": 3933,
      "Ġtriangular": 3934,
      "ÑİÑĤ": 3935,
      "Ġpicks": 3936,
      "Ġquestions": 3937,
      "Ġlocated": 3938,
      "subset": 3939,
      "Ġrepeated": 3940,
      "Ġhorizontal": 3941,
      "Ġverschied": 3942,
      "ĠåĪĨåĪ¥": 3943,
      "Ġcirconferenza": 3944,
      "OB": 3945,
      "ep": 3946,
      "Ġ____": 3947,
      "ĠmÃªme": 3948,
      "Ġrequ": 3949,
      "Ġgames": 3950,
      "Ġseus": 3951,
      "Ġseven": 3952,
      "thers": 3953,
      "ila": 3954,
      "Ġkot": 3955,
      "Ġboy": 3956,
      "Ġjed": 3957,
      "Ġess": 3958,
      "Ġminutes": 3959,
      "2025": 3960,
      "Ġorthocentre": 3961,
      "ĠÑĩÐ¸ÑģÐ»Ð°": 3962,
      "éĢĻ": 3963,
      "iÅ¡Äįe": 3964,
      "ĠDreieck": 3965,
      "Ġtrikotnika": 3966,
      "Ġcomputer": 3967,
      "Ġconnecting": 3968,
      "ĠTeil": 3969,
      "))^": 3970,
      "BN": 3971,
      "BAC": 3972,
      "Po": 3973,
      "ain": 3974,
      "ju": 3975,
      "sh": 3976,
      "åº": 3977,
      "æĻĤ": 3978,
      "Ġtile": 3979,
      "Ġaf": 3980,
      "Ġpare": 3981,
      "ĠmÃ©": 3982,
      "Ġvse": 3983,
      "Ġgive": 3984,
      "ĠCar": 3985,
      "BCD": 3986,
      "Ã©rie": 3987,
      "Ġproced": 3988,
      "Ġpunct": 3989,
      "setmin": 3990,
      "anov": 3991,
      "Ġpolygons": 3992,
      "ĠtoÄįka": 3993,
      "ĠÐ»Ð¸": 3994,
      "Ġextend": 3995,
      "è¡Į": 3996,
      "éĻ¤": 3997,
      "Ġweights": 3998,
      "Ġsemicircle": 3999,
      "---|---|": 4000,
      "Define": 4001,
      "Ġwrote": 4002,
      "setminus": 4003,
      "ball": 4004,
      "ji": 4005,
      "odot": 4006,
      "zi": 4007,
      "Ã«": 4008,
      "ä¾": 4009,
      "åŀĤ": 4010,
      "reven": 4011,
      "Ġdre": 4012,
      "Ġdon": 4013,
      "Ð°ÑĤ": 4014,
      "ĠBAD": 4015,
      "ÑģÑĤÐ¾": 4016,
      "ACD": 4017,
      "Ġescol": 4018,
      "Ġintersecting": 4019,
      "Ġdraws": 4020,
      "Ġgoal": 4021,
      "ĠÐ½Ð°ÑĤÑĥÑĢÐ°": 4022,
      "Ġentire": 4023,
      "Ġveloc": 4024,
      "Ġmedio": 4025,
      "å¾ŀ": 4026,
      "Ġfilled": 4027,
      "Ġmiddle": 4028,
      "Ġleading": 4029,
      "Ġbolas": 4030,
      "Ġseries": 4031,
      "ĠmÃ¡ximo": 4032,
      "ĠÑĤÑĢÐµÑĥÐ³Ð¾Ð»ÑĮÐ½Ð¸": 4033,
      "æĦı": 4034,
      ")?": 4035,
      "iÃ§Ã£o": 4036,
      "uk": 4037,
      "å¸": 4038,
      "Ġothers": 4039,
      "atri": 4040,
      "ather": 4041,
      "Ġcurrent": 4042,
      "Ġdays": 4043,
      "Ġlit": 4044,
      "Ġhand": 4045,
      "Ġinteiro": 4046,
      "Ġconten": 4047,
      "icht": 4048,
      "tado": 4049,
      "Ġkat": 4050,
      "Ġrh": 4051,
      "Ġjust": 4052,
      "alla": 4053,
      "ABCDE": 4054,
      "cio": 4055,
      "ĠÐ½Ð¸": 4056,
      "ÃŃn": 4057,
      "Ġpreced": 4058,
      "Ġunits": 4059,
      "kov": 4060,
      "Ġ2008": 4061,
      "Ġentries": 4062,
      "Ġtienen": 4063,
      "Ã©montrer": 4064,
      "ä»»æĦı": 4065,
      "ĠGeraden": 4066,
      "ĠmÃºltiplo": 4067,
      "Ġkvadrat": 4068,
      "48": 4069,
      "DB": 4070,
      "Dem": 4071,
      "You": 4072,
      "dade": 4073,
      "nitt": 4074,
      "rational": 4075,
      "zw": 4076,
      "|$,": 4077,
      "èĢ": 4078,
      "éļ": 4079,
      "enas": 4080,
      "Ġnel": 4081,
      "Ġnice": 4082,
      "riangle": 4083,
      "Ġgives": 4084,
      "Ġquatro": 4085,
      "mate": 4086,
      "Ġkater": 4087,
      "Ġassume": 4088,
      "ĠÐ¿ÐµÑĢÐµ": 4089,
      "ĠZij": 4090,
      "ĠKoliko": 4091,
      "Ġorthogonal": 4092,
      "Ġpossui": 4093,
      "Ġseguir": 4094,
      "Ġpaths": 4095
    },
    "merges": [
      [
        "Ġ",
        "$"
      ],
      [
        "Ġ",
        "t"
      ],
      [
        "Ġ",
        "a"
      ],
      [
        "Ġt",
        "h"
      ],
      [
        "i",
        "n"
      ],
      [
        "e",
        "r"
      ],
      [
        "l",
        "e"
      ],
      [
        "Ġ",
        "o"
      ],
      [
        "Ġth",
        "e"
      ],
      [
        "Ġ",
        "s"
      ],
      [
        "Ġ",
        "p"
      ],
      [
        "a",
        "t"
      ],
      [
        "Ġ",
        "c"
      ],
      [
        "r",
        "e"
      ],
      [
        "Ġ",
        "\\"
      ],
      [
        "e",
        "n"
      ],
      [
        "Ġ",
        "d"
      ],
      [
        "i",
        "s"
      ],
      [
        "Ġo",
        "f"
      ],
      [
        "Ġa",
        "n"
      ],
      [
        "a",
        "n"
      ],
      [
        "i",
        "t"
      ],
      [
        "r",
        "o"
      ],
      [
        "Ġ",
        "b"
      ],
      [
        "o",
        "n"
      ],
      [
        "Ġ",
        "in"
      ],
      [
        "Ġ",
        "n"
      ],
      [
        "e",
        "s"
      ],
      [
        "Ġan",
        "d"
      ],
      [
        "a",
        "l"
      ],
      [
        "$",
        "."
      ],
      [
        "$",
        ","
      ],
      [
        "Ġ",
        "e"
      ],
      [
        "o",
        "s"
      ],
      [
        "Ġ",
        "f"
      ],
      [
        "v",
        "e"
      ],
      [
        "r",
        "i"
      ],
      [
        "u",
        "m"
      ],
      [
        "t",
        "e"
      ],
      [
        "e",
        "t"
      ],
      [
        "Ġ",
        "w"
      ],
      [
        "a",
        "c"
      ],
      [
        "Ġth",
        "at"
      ],
      [
        "o",
        "r"
      ],
      [
        "t",
        "s"
      ],
      [
        "q",
        "u"
      ],
      [
        "Ġ",
        "m"
      ],
      [
        "_",
        "{"
      ],
      [
        "Ġ",
        "is"
      ],
      [
        "a",
        "r"
      ],
      [
        "Ġ",
        "+"
      ],
      [
        "er",
        "s"
      ],
      [
        "P",
        "ro"
      ],
      [
        "t",
        "i"
      ],
      [
        "Ġ",
        "="
      ],
      [
        "b",
        "le"
      ],
      [
        "Ġ$",
        "\\"
      ],
      [
        "Ġ",
        "l"
      ],
      [
        "an",
        "g"
      ],
      [
        "c",
        "h"
      ],
      [
        "i",
        "r"
      ],
      [
        "l",
        "l"
      ],
      [
        "a",
        "s"
      ],
      [
        "Ġ",
        "re"
      ],
      [
        "Ġb",
        "e"
      ],
      [
        "Ġt",
        "o"
      ],
      [
        "Ġn",
        "um"
      ],
      [
        "u",
        "n"
      ],
      [
        "d",
        "o"
      ],
      [
        "$",
        "$"
      ],
      [
        "e",
        "c"
      ],
      [
        "ang",
        "le"
      ],
      [
        "en",
        "t"
      ],
      [
        "Ġnum",
        "b"
      ],
      [
        "^",
        "{"
      ],
      [
        "Ġo",
        "n"
      ],
      [
        "Ġp",
        "o"
      ],
      [
        "e",
        "d"
      ],
      [
        "A",
        "B"
      ],
      [
        "Ġp",
        "os"
      ],
      [
        "i",
        "d"
      ],
      [
        "Ġ",
        "1"
      ],
      [
        "Ġa",
        "re"
      ],
      [
        "o",
        "m"
      ],
      [
        "ble",
        "m"
      ],
      [
        "Ġs",
        "u"
      ],
      [
        "Ġ",
        "h"
      ],
      [
        "Pro",
        "blem"
      ],
      [
        "}",
        "$"
      ],
      [
        "Ġd",
        "i"
      ],
      [
        "r",
        "ac"
      ],
      [
        "Ġin",
        "te"
      ],
      [
        "it",
        "i"
      ],
      [
        "in",
        "g"
      ],
      [
        "Ġinte",
        "g"
      ],
      [
        "}",
        "{"
      ],
      [
        "l",
        "y"
      ],
      [
        "Ġd",
        "e"
      ],
      [
        "ir",
        "c"
      ],
      [
        "f",
        "rac"
      ],
      [
        "Ġ",
        "2"
      ],
      [
        "Ġ",
        "v"
      ],
      [
        "a",
        "m"
      ],
      [
        "Ġ",
        "Ð"
      ],
      [
        "Ġ",
        "g"
      ],
      [
        "Ġpo",
        "in"
      ],
      [
        "it",
        "h"
      ],
      [
        "L",
        "et"
      ],
      [
        "Ġ",
        "le"
      ],
      [
        "Ġpos",
        "iti"
      ],
      [
        "in",
        "e"
      ],
      [
        "Ġsu",
        "ch"
      ],
      [
        "a",
        "d"
      ],
      [
        "Ġ",
        "("
      ],
      [
        "g",
        "h"
      ],
      [
        "Ġ",
        "A"
      ],
      [
        "Ġa",
        "ll"
      ],
      [
        "er",
        "e"
      ],
      [
        "Ġa",
        "t"
      ],
      [
        "Ġt",
        "ri"
      ],
      [
        "Ġc",
        "on"
      ],
      [
        "Ġw",
        "ith"
      ],
      [
        "Ġs",
        "e"
      ],
      [
        "do",
        "ts"
      ],
      [
        "Ġf",
        "or"
      ],
      [
        "Ġ",
        "qu"
      ],
      [
        "Ð",
        "°"
      ],
      [
        "o",
        "l"
      ],
      [
        "Ġpositi",
        "ve"
      ],
      [
        "Ġw",
        "h"
      ],
      [
        "Ġ",
        "i"
      ],
      [
        "Ġ",
        "y"
      ],
      [
        "o",
        "w"
      ],
      [
        "Ð",
        "¾"
      ],
      [
        "Ġnumb",
        "er"
      ],
      [
        "g",
        "e"
      ],
      [
        "ac",
        "h"
      ],
      [
        "AB",
        "C"
      ],
      [
        "h",
        "e"
      ],
      [
        "u",
        "l"
      ],
      [
        "i",
        "c"
      ],
      [
        "i",
        "m"
      ],
      [
        "Ġe",
        "x"
      ],
      [
        "u",
        "r"
      ],
      [
        "Ġ",
        "x"
      ],
      [
        "Ġ",
        "B"
      ],
      [
        "Ġtri",
        "angle"
      ],
      [
        "Ġc",
        "irc"
      ],
      [
        "Pro",
        "ve"
      ],
      [
        "t",
        "h"
      ],
      [
        "in",
        "d"
      ],
      [
        "Ġ",
        "un"
      ],
      [
        "Ġin",
        "t"
      ],
      [
        ")",
        "$"
      ],
      [
        "Ġnumb",
        "ers"
      ],
      [
        "m",
        "at"
      ],
      [
        "Ð",
        "µ"
      ],
      [
        "a",
        "y"
      ],
      [
        "Ġ",
        "C"
      ],
      [
        "Ġ",
        "-"
      ],
      [
        "gh",
        "t"
      ],
      [
        "mat",
        "h"
      ],
      [
        "c",
        "e"
      ],
      [
        "a",
        "re"
      ],
      [
        "Ġ",
        "S"
      ],
      [
        "Ġ",
        "T"
      ],
      [
        "Ġinteg",
        "ers"
      ],
      [
        "Ġinteg",
        "er"
      ],
      [
        "v",
        "er"
      ],
      [
        "Ñ",
        "Ĥ"
      ],
      [
        "i",
        "on"
      ],
      [
        "Ġ",
        "F"
      ],
      [
        "o",
        "t"
      ],
      [
        "Ġpoin",
        "t"
      ],
      [
        "Ġ",
        "D"
      ],
      [
        "Ð",
        "¸"
      ],
      [
        "Ġ",
        "Prove"
      ],
      [
        "w",
        "o"
      ],
      [
        "f",
        "t"
      ],
      [
        "2",
        "0"
      ],
      [
        "le",
        "s"
      ],
      [
        "is",
        "t"
      ],
      [
        "r",
        "a"
      ],
      [
        "ti",
        "on"
      ],
      [
        "e",
        "g"
      ],
      [
        "ri",
        "ght"
      ],
      [
        "Ġ$",
        "("
      ],
      [
        "Ġe",
        "ach"
      ],
      [
        "u",
        "s"
      ],
      [
        "Ġt",
        "wo"
      ],
      [
        "c",
        "t"
      ],
      [
        "Ġ",
        "3"
      ],
      [
        "Ġth",
        "ere"
      ],
      [
        "Ġqu",
        "e"
      ],
      [
        "Ð",
        "½"
      ],
      [
        "Ġon",
        "e"
      ],
      [
        "er",
        "m"
      ],
      [
        "B",
        "C"
      ],
      [
        "i",
        "ch"
      ],
      [
        "Ġp",
        "l"
      ],
      [
        "Ġpoin",
        "ts"
      ],
      [
        "i",
        "l"
      ],
      [
        "Ġb",
        "y"
      ],
      [
        "t",
        "a"
      ],
      [
        "Ñ",
        "Ģ"
      ],
      [
        "Ġ",
        "it"
      ],
      [
        "Ã",
        "©"
      ],
      [
        "Ġi",
        "f"
      ],
      [
        "Ġo",
        "r"
      ],
      [
        "u",
        "t"
      ],
      [
        "Ġp",
        "ro"
      ],
      [
        "s",
        "i"
      ],
      [
        "0",
        "0"
      ],
      [
        "id",
        "e"
      ],
      [
        "n",
        "g"
      ],
      [
        "e",
        "l"
      ],
      [
        "Ġ",
        "I"
      ],
      [
        "Ġa",
        "l"
      ],
      [
        "Ġp",
        "ar"
      ],
      [
        "ers",
        "ec"
      ],
      [
        "b",
        "b"
      ],
      [
        "Ġre",
        "s"
      ],
      [
        "Ġ",
        "k"
      ],
      [
        "}",
        ","
      ],
      [
        "m",
        "a"
      ],
      [
        "Ġs",
        "t"
      ],
      [
        "}",
        "+"
      ],
      [
        "c",
        "irc"
      ],
      [
        "Ġe",
        "qu"
      ],
      [
        "Ġ",
        "|"
      ],
      [
        "r",
        "t"
      ],
      [
        "Ġre",
        "al"
      ],
      [
        "Ġint",
        "ersec"
      ],
      [
        "Ġ",
        "en"
      ],
      [
        "math",
        "bb"
      ],
      [
        "qu",
        "are"
      ],
      [
        "Ġ",
        "r"
      ],
      [
        "ro",
        "m"
      ],
      [
        "Ġ",
        "P"
      ],
      [
        "Ġc",
        "an"
      ],
      [
        "Ġ",
        "z"
      ],
      [
        "Ġc",
        "o"
      ],
      [
        "q",
        "rt"
      ],
      [
        "s",
        "qrt"
      ],
      [
        "}",
        "$."
      ],
      [
        "Ġs",
        "quare"
      ],
      [
        "Ġc",
        "om"
      ],
      [
        "Ñ",
        "ģ"
      ],
      [
        "Ġl",
        "ine"
      ],
      [
        "p",
        "ec"
      ],
      [
        "Ġc",
        "h"
      ],
      [
        "u",
        "p"
      ],
      [
        "Ġf",
        "rom"
      ],
      [
        "l",
        "o"
      ],
      [
        "Ġdi",
        "v"
      ],
      [
        "ĠT",
        "he"
      ],
      [
        "A",
        "C"
      ],
      [
        "Ġf",
        "o"
      ],
      [
        "i",
        "v"
      ],
      [
        "Ġwh",
        "ich"
      ],
      [
        "ti",
        "ve"
      ],
      [
        "at",
        "ion"
      ],
      [
        "Ġc",
        "ol"
      ],
      [
        "le",
        "ft"
      ],
      [
        "Ġ",
        "E"
      ],
      [
        "es",
        "t"
      ],
      [
        "Ġ",
        "Let"
      ],
      [
        "Ġ",
        "ro"
      ],
      [
        "Ġres",
        "pec"
      ],
      [
        "l",
        "dots"
      ],
      [
        "Ġa",
        "s"
      ],
      [
        "u",
        "e"
      ],
      [
        "en",
        "ts"
      ],
      [
        "Ð",
        "»"
      ],
      [
        "t",
        "o"
      ],
      [
        "Ġp",
        "er"
      ],
      [
        "Ġv",
        "al"
      ],
      [
        "Ġl",
        "a"
      ],
      [
        "am",
        "e"
      ],
      [
        "it",
        "e"
      ],
      [
        "en",
        "d"
      ],
      [
        "Ġan",
        "y"
      ],
      [
        "Ġb",
        "o"
      ],
      [
        "f",
        "f"
      ],
      [
        "e",
        "m"
      ],
      [
        "re",
        "s"
      ],
      [
        "et",
        "erm"
      ],
      [
        "Ġpos",
        "si"
      ],
      [
        "Ġd",
        "o"
      ],
      [
        "Ġm",
        "o"
      ],
      [
        "ar",
        "d"
      ],
      [
        "Ġcirc",
        "le"
      ],
      [
        "Ġh",
        "as"
      ],
      [
        "s",
        "t"
      ],
      [
        "Ġ",
        "0"
      ],
      [
        "}",
        "\\"
      ],
      [
        "os",
        "e"
      ],
      [
        "Ġd",
        "ist"
      ],
      [
        "Ġ",
        "4"
      ],
      [
        "i",
        "g"
      ],
      [
        "m",
        "es"
      ],
      [
        "Ġse",
        "g"
      ],
      [
        "g",
        "on"
      ],
      [
        "Ġh",
        "a"
      ],
      [
        "Ġ",
        "j"
      ],
      [
        "Ġpossi",
        "ble"
      ],
      [
        "Ġp",
        "a"
      ],
      [
        "}",
        "$,"
      ],
      [
        "Ġrespec",
        "tive"
      ],
      [
        "Ġs",
        "o"
      ],
      [
        "Ġn",
        "ot"
      ],
      [
        "Ġs",
        "um"
      ],
      [
        "eg",
        "a"
      ],
      [
        "Ġrespective",
        "ly"
      ],
      [
        "F",
        "ind"
      ],
      [
        "Ġs",
        "et"
      ],
      [
        "o",
        "in"
      ],
      [
        "m",
        "ent"
      ],
      [
        "ä",
        "¸"
      ],
      [
        "ti",
        "mes"
      ],
      [
        "Ġ",
        "Ã"
      ],
      [
        "p",
        "er"
      ],
      [
        "er",
        "o"
      ],
      [
        "c",
        "es"
      ],
      [
        "Ġt",
        "a"
      ],
      [
        "Ġcirc",
        "um"
      ],
      [
        "e",
        "ll"
      ],
      [
        "ĠF",
        "ind"
      ],
      [
        "Ġv",
        "er"
      ],
      [
        "al",
        "le"
      ],
      [
        "Ġ",
        "W"
      ],
      [
        "eterm",
        "ine"
      ],
      [
        "Ġ",
        "<"
      ],
      [
        "Ġn",
        "o"
      ],
      [
        "m",
        "e"
      ],
      [
        "do",
        "t"
      ],
      [
        "as",
        "t"
      ],
      [
        "an",
        "t"
      ],
      [
        "Ġ",
        "M"
      ],
      [
        "Ð",
        "º"
      ],
      [
        "ver",
        "y"
      ],
      [
        "Ñ",
        "ĥ"
      ],
      [
        "is",
        "f"
      ],
      [
        "Ġp",
        "ri"
      ],
      [
        "re",
        "e"
      ],
      [
        "Ġs",
        "at"
      ],
      [
        "iv",
        "en"
      ],
      [
        "at",
        "er"
      ],
      [
        "Ġle",
        "t"
      ],
      [
        "Ġsat",
        "isf"
      ],
      [
        "Ġs",
        "ide"
      ],
      [
        "n",
        "e"
      ],
      [
        "c",
        "tion"
      ],
      [
        "id",
        "es"
      ],
      [
        "h",
        "ow"
      ],
      [
        "c",
        "dot"
      ],
      [
        "as",
        "s"
      ],
      [
        "en",
        "ce"
      ],
      [
        "ul",
        "ar"
      ],
      [
        "th",
        "er"
      ],
      [
        "Ġ",
        "es"
      ],
      [
        "Ġm",
        "a"
      ],
      [
        "Ġ2",
        "0"
      ],
      [
        "Ġm",
        "an"
      ],
      [
        "Ã",
        "º"
      ],
      [
        "u",
        "te"
      ],
      [
        "Ð",
        "²"
      ],
      [
        "Ġse",
        "qu"
      ],
      [
        "te",
        "x"
      ],
      [
        "Ġequ",
        "al"
      ],
      [
        ")",
        "."
      ],
      [
        "Ġe",
        "very"
      ],
      [
        "Ġdiv",
        "is"
      ],
      [
        "al",
        "l"
      ],
      [
        "ent",
        "er"
      ],
      [
        "p",
        "le"
      ],
      [
        "Ġl",
        "i"
      ],
      [
        "t",
        "ri"
      ],
      [
        "Ġa",
        "r"
      ],
      [
        "Ġn",
        "on"
      ],
      [
        "20",
        "1"
      ],
      [
        "Ġha",
        "ve"
      ],
      [
        "ge",
        "q"
      ],
      [
        "om",
        "ega"
      ],
      [
        "in",
        "es"
      ],
      [
        "Ġs",
        "om"
      ],
      [
        "Ġpl",
        "ay"
      ],
      [
        "Ð",
        "´"
      ],
      [
        "h",
        "at"
      ],
      [
        "ta",
        "in"
      ],
      [
        "Ġ",
        ">"
      ],
      [
        "ro",
        "u"
      ],
      [
        "Ġth",
        "an"
      ],
      [
        "Ġw",
        "e"
      ],
      [
        "ll",
        "ow"
      ],
      [
        "Ġfo",
        "llow"
      ],
      [
        "Ġdist",
        "in"
      ],
      [
        "r",
        "it"
      ],
      [
        "le",
        "q"
      ],
      [
        "Ġ",
        "5"
      ],
      [
        "ff",
        "er"
      ],
      [
        "Ġm",
        "e"
      ],
      [
        "Ġcon",
        "s"
      ],
      [
        "Ãº",
        "m"
      ],
      [
        "Ġt",
        "ang"
      ],
      [
        "}",
        "^{"
      ],
      [
        "on",
        "s"
      ],
      [
        "Ġqu",
        "ad"
      ],
      [
        "Ġn",
        "Ãºm"
      ],
      [
        "ac",
        "t"
      ],
      [
        "a",
        "b"
      ],
      [
        "Ġdi",
        "ffer"
      ],
      [
        "Ġit",
        "s"
      ],
      [
        "Ġth",
        "ree"
      ],
      [
        "Ä",
        "ĥ"
      ],
      [
        "Ġpa",
        "ir"
      ],
      [
        "p",
        "h"
      ],
      [
        "Ġman",
        "y"
      ],
      [
        "Ġthe",
        "n"
      ],
      [
        "Ã",
        "¡"
      ],
      [
        "Ġle",
        "ast"
      ],
      [
        "1",
        "0"
      ],
      [
        "s",
        "e"
      ],
      [
        "ç",
        "ļ"
      ],
      [
        "ABC",
        "D"
      ],
      [
        "circ",
        "le"
      ],
      [
        "Ġsatisf",
        "y"
      ],
      [
        "}",
        "="
      ],
      [
        "Ġ",
        "O"
      ],
      [
        "Ġ",
        "Ñ"
      ],
      [
        "Ġl",
        "ines"
      ],
      [
        "Ġpo",
        "ly"
      ],
      [
        "rou",
        "gh"
      ],
      [
        "am",
        "ma"
      ],
      [
        "Ġc",
        "u"
      ],
      [
        "Ġh",
        "e"
      ],
      [
        "i",
        "ve"
      ],
      [
        "çļ",
        "Ħ"
      ],
      [
        "Ġfollow",
        "ing"
      ],
      [
        "ec",
        "t"
      ],
      [
        "ng",
        "th"
      ],
      [
        "Ġth",
        "rough"
      ],
      [
        "u",
        "d"
      ],
      [
        "Ġs",
        "ides"
      ],
      [
        "c",
        "i"
      ],
      [
        "Ġsequ",
        "ence"
      ],
      [
        "p",
        "p"
      ],
      [
        "t",
        "en"
      ],
      [
        "Ġval",
        "ue"
      ],
      [
        "Ġs",
        "ame"
      ],
      [
        "Ġm",
        "id"
      ],
      [
        "Ġle",
        "ngth"
      ],
      [
        "g",
        "it"
      ],
      [
        "p",
        "oin"
      ],
      [
        "Ġ",
        "um"
      ],
      [
        "m",
        "ents"
      ],
      [
        "Ġo",
        "ther"
      ],
      [
        "Ä",
        "į"
      ],
      [
        "a",
        "gon"
      ],
      [
        "Ġ",
        "Ġ"
      ],
      [
        "æ",
        "ķ"
      ],
      [
        "tri",
        "angle"
      ],
      [
        "Ġex",
        "is"
      ],
      [
        "l",
        "i"
      ],
      [
        "Ġf",
        "un"
      ],
      [
        "A",
        "D"
      ],
      [
        "Ġdistin",
        "ct"
      ],
      [
        "w",
        "e"
      ],
      [
        "Ġs",
        "i"
      ],
      [
        "Ġ",
        "6"
      ],
      [
        "Ġe",
        "t"
      ],
      [
        "at",
        "t"
      ],
      [
        "or",
        "s"
      ],
      [
        "en",
        "te"
      ],
      [
        "ã",
        "Ģ"
      ],
      [
        "Ġ",
        "*"
      ],
      [
        "Ð",
        "³"
      ],
      [
        "d",
        "er"
      ],
      [
        "ĠI",
        "f"
      ],
      [
        "a",
        "ge"
      ],
      [
        "Ġ",
        "N"
      ],
      [
        "it",
        "y"
      ],
      [
        "Ġe",
        "l"
      ],
      [
        "os",
        "t"
      ],
      [
        "Ġseg",
        "ment"
      ],
      [
        "Ġwh",
        "ere"
      ],
      [
        "Ġ",
        "H"
      ],
      [
        "Ġpri",
        "me"
      ],
      [
        "Ġex",
        "act"
      ],
      [
        "ater",
        "al"
      ],
      [
        "on",
        "t"
      ],
      [
        "f",
        "in"
      ],
      [
        "Ġn",
        "e"
      ],
      [
        "Ġan",
        "g"
      ],
      [
        "p",
        "end"
      ],
      [
        "-",
        "-"
      ],
      [
        "i",
        "o"
      ],
      [
        "Ġth",
        "is"
      ],
      [
        "k",
        "e"
      ],
      [
        "}",
        "-"
      ],
      [
        "Ġdi",
        "git"
      ],
      [
        "ãĢ",
        "Ĥ"
      ],
      [
        "Ġsquare",
        "s"
      ],
      [
        "d",
        "s"
      ],
      [
        "Ġb",
        "l"
      ],
      [
        "Ġle",
        "s"
      ],
      [
        "o",
        "te"
      ],
      [
        "Ġme",
        "et"
      ],
      [
        "Ġ",
        "9"
      ],
      [
        "Ġtang",
        "ent"
      ],
      [
        "Ð",
        "¼"
      ],
      [
        "i",
        "al"
      ],
      [
        "s",
        "um"
      ],
      [
        "Ġmid",
        "poin"
      ],
      [
        "at",
        "e"
      ],
      [
        "lo",
        "or"
      ],
      [
        "Ġsom",
        "e"
      ],
      [
        "Ġs",
        "m"
      ],
      [
        "Ã",
        "£"
      ],
      [
        "Ġexact",
        "ly"
      ],
      [
        "b",
        "o"
      ],
      [
        "Ġver",
        "ti"
      ],
      [
        "er",
        "i"
      ],
      [
        "}",
        "}"
      ],
      [
        "Ġe",
        "le"
      ],
      [
        "f",
        "loor"
      ],
      [
        "Ġd",
        "en"
      ],
      [
        "on",
        "g"
      ],
      [
        "Å",
        "¡"
      ],
      [
        "tex",
        "t"
      ],
      [
        "o",
        "ver"
      ],
      [
        "Ġ",
        "Ã©"
      ],
      [
        ")",
        "$."
      ],
      [
        "Ġdiffer",
        "ent"
      ],
      [
        "Ġfun",
        "ction"
      ],
      [
        "Ã£",
        "o"
      ],
      [
        "Ġ",
        "Q"
      ],
      [
        "Ġ",
        "G"
      ],
      [
        "f",
        "or"
      ],
      [
        "ĠS",
        "how"
      ],
      [
        "i",
        "ll"
      ],
      [
        "an",
        "e"
      ],
      [
        "Ġin",
        "s"
      ],
      [
        "Ġa",
        "c"
      ],
      [
        "es",
        "s"
      ],
      [
        "ach",
        "ed"
      ],
      [
        "(",
        "\\"
      ],
      [
        "T",
        "he"
      ],
      [
        "qu",
        "ad"
      ],
      [
        "G",
        "amma"
      ],
      [
        "Ġm",
        "in"
      ],
      [
        "C",
        "D"
      ],
      [
        "o",
        "u"
      ],
      [
        "Ġexis",
        "ts"
      ],
      [
        "$",
        "-"
      ],
      [
        "Ġintersec",
        "t"
      ],
      [
        "im",
        "age"
      ],
      [
        "Ġcircum",
        "circle"
      ],
      [
        "att",
        "ached"
      ],
      [
        "!",
        "["
      ],
      [
        "]",
        "("
      ],
      [
        "p",
        "ng"
      ],
      [
        "![",
        "]("
      ],
      [
        "Ġc",
        "ell"
      ],
      [
        "Ġcon",
        "tain"
      ],
      [
        "im",
        "um"
      ],
      [
        "ÑĤ",
        "Ð¾"
      ],
      [
        "Ġintersec",
        "ts"
      ],
      [
        "Ġthe",
        "m"
      ],
      [
        "up",
        "p"
      ],
      [
        "c",
        "al"
      ],
      [
        "ĠF",
        "or"
      ],
      [
        "te",
        "d"
      ],
      [
        "Ġint",
        "o"
      ],
      [
        ")",
        "^"
      ],
      [
        "Ġ",
        "L"
      ],
      [
        "Ġfor",
        "m"
      ],
      [
        "Ġ$\\",
        "{"
      ],
      [
        "id",
        "er"
      ],
      [
        ")",
        "$,"
      ],
      [
        "alle",
        "l"
      ],
      [
        ")",
        ","
      ],
      [
        "Ġ",
        "&"
      ],
      [
        "o",
        "re"
      ],
      [
        "Ġp",
        "ass"
      ],
      [
        "ri",
        "l"
      ],
      [
        "a",
        "p"
      ],
      [
        "I",
        "n"
      ],
      [
        "Ġw",
        "rit"
      ],
      [
        "upp",
        "ose"
      ],
      [
        "pend",
        "ic"
      ],
      [
        "Ġb",
        "is"
      ],
      [
        "t",
        "y"
      ],
      [
        "ĠÐ",
        "½"
      ],
      [
        "Ġg",
        "re"
      ],
      [
        "Ġsu",
        "b"
      ],
      [
        "ac",
        "k"
      ],
      [
        "ic",
        "i"
      ],
      [
        "Ġpoly",
        "n"
      ],
      [
        "l",
        "ine"
      ],
      [
        "ay",
        "s"
      ],
      [
        "$",
        "?"
      ],
      [
        "Ġ",
        "Ñģ"
      ],
      [
        "Ġper",
        "pendic"
      ],
      [
        "^",
        "\\"
      ],
      [
        "o",
        "d"
      ],
      [
        "Ġex",
        "ist"
      ],
      [
        "a",
        "le"
      ],
      [
        "Ġare",
        "a"
      ],
      [
        "om",
        "ial"
      ],
      [
        "Ġn",
        "at"
      ],
      [
        "}",
        "("
      ],
      [
        "Ñ",
        "ĭ"
      ],
      [
        "Ġverti",
        "ces"
      ],
      [
        "1",
        "00"
      ],
      [
        "Ġp",
        "i"
      ],
      [
        "ĠÐ",
        "¿"
      ],
      [
        "ur",
        "n"
      ],
      [
        "Ġ$",
        "|"
      ],
      [
        "on",
        "d"
      ],
      [
        "Ġ",
        ":"
      ],
      [
        "i",
        "ble"
      ],
      [
        "l",
        "ic"
      ],
      [
        "}+",
        "\\"
      ],
      [
        "Ġintersec",
        "tion"
      ],
      [
        "n",
        "i"
      ],
      [
        "c",
        "dots"
      ],
      [
        "Ġa",
        "d"
      ],
      [
        ")",
        "="
      ],
      [
        "Ġ",
        "Z"
      ],
      [
        "Ġpolyn",
        "omial"
      ],
      [
        "Ġ\\",
        "{"
      ],
      [
        "i",
        "e"
      ],
      [
        "in",
        "s"
      ],
      [
        "Ġ",
        "ABC"
      ],
      [
        "Ġre",
        "ct"
      ],
      [
        "ĠW",
        "hat"
      ],
      [
        "Ġb",
        "et"
      ],
      [
        ")",
        "("
      ],
      [
        "\\",
        "}$"
      ],
      [
        "h",
        "ere"
      ],
      [
        "we",
        "en"
      ],
      [
        "Ġ1",
        "0"
      ],
      [
        "æķ",
        "¸"
      ],
      [
        "Ġp",
        "un"
      ],
      [
        "Ġch",
        "o"
      ],
      [
        "ne",
        "q"
      ],
      [
        "Ġperpendic",
        "ular"
      ],
      [
        "u",
        "es"
      ],
      [
        "ad",
        "a"
      ],
      [
        "Ġtriangle",
        "s"
      ],
      [
        "Ġg",
        "iven"
      ],
      [
        "Ġbet",
        "ween"
      ],
      [
        "ir",
        "st"
      ],
      [
        "Ġd",
        "a"
      ],
      [
        "Ġro",
        "w"
      ],
      [
        "an",
        "d"
      ],
      [
        "Ġ",
        "å"
      ],
      [
        "Ã",
        "Ń"
      ],
      [
        "Ġ",
        "7"
      ],
      [
        "Ġl",
        "ar"
      ],
      [
        "ri",
        "b"
      ],
      [
        "Ġ",
        "8"
      ],
      [
        "er",
        "os"
      ],
      [
        "Ġquad",
        "ril"
      ],
      [
        "Ġon",
        "ly"
      ],
      [
        "r",
        "m"
      ],
      [
        "Ġang",
        "le"
      ],
      [
        "Ġsatisfy",
        "ing"
      ],
      [
        "Ġl",
        "os"
      ],
      [
        "Ġequ",
        "ation"
      ],
      [
        "ĠD",
        "etermine"
      ],
      [
        "over",
        "line"
      ],
      [
        "c",
        "enter"
      ],
      [
        "Ñ",
        "ĩ"
      ],
      [
        "Ġe",
        "m"
      ],
      [
        "Ġf",
        "irst"
      ],
      [
        "Ġc",
        "he"
      ],
      [
        "Ġdigit",
        "s"
      ],
      [
        "Ġde",
        "l"
      ],
      [
        "'",
        "$"
      ],
      [
        "at",
        "ive"
      ],
      [
        "æ",
        "ľ"
      ],
      [
        "s",
        "et"
      ],
      [
        "Ġcom",
        "p"
      ],
      [
        "Ġ20",
        "1"
      ],
      [
        "math",
        "rm"
      ],
      [
        "Ġmidpoin",
        "t"
      ],
      [
        "20",
        "0"
      ],
      [
        "ÑĢ",
        "Ð°"
      ],
      [
        "Ġre",
        "g"
      ],
      [
        "{",
        "\\"
      ],
      [
        "Ġcom",
        "m"
      ],
      [
        "Ġ",
        "K"
      ],
      [
        "Ġo",
        "b"
      ],
      [
        "^{",
        "\\"
      ],
      [
        "ul",
        "o"
      ],
      [
        "p",
        "res"
      ],
      [
        "ent",
        "re"
      ],
      [
        "Ġma",
        "x"
      ],
      [
        "or",
        "d"
      ],
      [
        "d",
        "u"
      ],
      [
        "ro",
        "w"
      ],
      [
        "Ġ",
        "est"
      ],
      [
        "Ġthe",
        "se"
      ],
      [
        "les",
        "t"
      ],
      [
        "al",
        "lest"
      ],
      [
        "Ð",
        "¹"
      ],
      [
        "Ñ",
        "Į"
      ],
      [
        "Ġpl",
        "ane"
      ],
      [
        "Ġd",
        "es"
      ],
      [
        "p",
        "e"
      ],
      [
        "o",
        "ur"
      ],
      [
        "Ð",
        "¶"
      ],
      [
        "Ġdivis",
        "ible"
      ],
      [
        "Ġsm",
        "allest"
      ],
      [
        "Ġc",
        "or"
      ],
      [
        "ĠÐ",
        "¾"
      ],
      [
        "ĠnÃºm",
        "ero"
      ],
      [
        "t",
        "er"
      ],
      [
        "Ġor",
        "der"
      ],
      [
        "Ġf",
        "in"
      ],
      [
        "D",
        "etermine"
      ],
      [
        "Ġ\\",
        "\\"
      ],
      [
        "r",
        "u"
      ],
      [
        "Ã",
        "§"
      ],
      [
        "is",
        "e"
      ],
      [
        "g",
        "a"
      ],
      [
        "Ġi",
        "l"
      ],
      [
        "Ġlar",
        "g"
      ],
      [
        "s",
        "o"
      ],
      [
        "ĠÐ",
        "¸"
      ],
      [
        "Ġquadril",
        "ateral"
      ],
      [
        "}",
        "}{"
      ],
      [
        "ph",
        "a"
      ],
      [
        "Ġdi",
        "agon"
      ],
      [
        "Ġ",
        "R"
      ],
      [
        "20",
        "2"
      ],
      [
        "F",
        "or"
      ],
      [
        "al",
        "pha"
      ],
      [
        "Ġwrit",
        "ten"
      ],
      [
        "un",
        "d"
      ],
      [
        "i",
        "j"
      ],
      [
        "al",
        "ly"
      ],
      [
        "Ñ",
        "ħ"
      ],
      [
        "c",
        "k"
      ],
      [
        "Ġp",
        "re"
      ],
      [
        "Ġt",
        "im"
      ],
      [
        "m",
        "o"
      ],
      [
        "Ġ$",
        "["
      ],
      [
        "r",
        "at"
      ],
      [
        "Ġs",
        "ol"
      ],
      [
        "Ġfo",
        "ur"
      ],
      [
        ")",
        "^{"
      ],
      [
        "a",
        "ri"
      ],
      [
        "Ġval",
        "ues"
      ],
      [
        "Ð½",
        "Ð¾"
      ],
      [
        "ĠnÃºm",
        "eros"
      ],
      [
        "Ġs",
        "ec"
      ],
      [
        "1",
        "2"
      ],
      [
        "i",
        "i"
      ],
      [
        "Ġpar",
        "allel"
      ],
      [
        "B",
        "D"
      ],
      [
        "n",
        "a"
      ],
      [
        "v",
        "es"
      ],
      [
        "Ġnat",
        "ur"
      ],
      [
        "an",
        "do"
      ],
      [
        "Ġthe",
        "ir"
      ],
      [
        "Ġbo",
        "ard"
      ],
      [
        "Ġpair",
        "s"
      ],
      [
        "ĠI",
        "n"
      ],
      [
        "v",
        "en"
      ],
      [
        "Ã",
        "³"
      ],
      [
        "Ð½",
        "Ð¸"
      ],
      [
        "+",
        "\\"
      ],
      [
        "Ġpro",
        "du"
      ],
      [
        "Ġin",
        "fin"
      ],
      [
        "d",
        "e"
      ],
      [
        "Ġg",
        "ame"
      ],
      [
        "Ġbo",
        "th"
      ],
      [
        "s",
        "l"
      ],
      [
        "ft",
        "er"
      ],
      [
        "Ġbl",
        "ack"
      ],
      [
        "ar",
        "row"
      ],
      [
        "Ġcon",
        "d"
      ],
      [
        "Ġt",
        "urn"
      ],
      [
        "Ġun",
        "it"
      ],
      [
        "E",
        "F"
      ],
      [
        "e",
        "qu"
      ],
      [
        "Ġ",
        "right"
      ],
      [
        "Ġs",
        "h"
      ],
      [
        "ĠÐ",
        "´"
      ],
      [
        "G",
        "iven"
      ],
      [
        "Ġbis",
        "ect"
      ],
      [
        "ĠÐ",
        "±"
      ],
      [
        "ĠÐ",
        "º"
      ],
      [
        "ĠA",
        "C"
      ],
      [
        "math",
        "cal"
      ],
      [
        "Ġac",
        "ute"
      ],
      [
        "1",
        "1"
      ],
      [
        "Ġj",
        "e"
      ],
      [
        "Ġf",
        "ind"
      ],
      [
        "Ġun",
        "a"
      ],
      [
        "c",
        "rib"
      ],
      [
        "Ġdo",
        "es"
      ],
      [
        "p",
        "s"
      ],
      [
        "Ġc",
        "ard"
      ],
      [
        "ar",
        "t"
      ],
      [
        "ÑĢ",
        "Ð¾"
      ],
      [
        "lo",
        "g"
      ],
      [
        "Ġmo",
        "ve"
      ],
      [
        "u",
        "re"
      ],
      [
        "Ġw",
        "ill"
      ],
      [
        "i",
        "a"
      ],
      [
        "as",
        "e"
      ],
      [
        "Ġr",
        "ad"
      ],
      [
        "C",
        "A"
      ],
      [
        "ra",
        "w"
      ],
      [
        "ä¸",
        "Ģ"
      ],
      [
        "Ġc",
        "er"
      ],
      [
        "n",
        "t"
      ],
      [
        "p",
        "l"
      ],
      [
        "Ġ1",
        "00"
      ],
      [
        "Ðº",
        "Ð°"
      ],
      [
        "Ġden",
        "ote"
      ],
      [
        "s",
        "ion"
      ],
      [
        "Ð",
        "·"
      ],
      [
        "ÑĤ",
        "Ð°"
      ],
      [
        "Ġpl",
        "ac"
      ],
      [
        "Ġseg",
        "ments"
      ],
      [
        "ĠÐ",
        "²"
      ],
      [
        "sl",
        "ant"
      ],
      [
        "p",
        "i"
      ],
      [
        "å",
        "Ģ"
      ],
      [
        "et",
        "er"
      ],
      [
        "Ġdiagon",
        "al"
      ],
      [
        "Ñ",
        "ı"
      ],
      [
        "right",
        "arrow"
      ],
      [
        ")",
        ")"
      ],
      [
        "ff",
        "ici"
      ],
      [
        "Ġo",
        "d"
      ],
      [
        "Ġcomm",
        "on"
      ],
      [
        "ä",
        "»"
      ],
      [
        "ç",
        "Ĥ"
      ],
      [
        "Ñ",
        "į"
      ],
      [
        "çĤ",
        "º"
      ],
      [
        ".",
        "."
      ],
      [
        "Ġcell",
        "s"
      ],
      [
        "Ġcol",
        "or"
      ],
      [
        "Ġli",
        "es"
      ],
      [
        "f",
        "er"
      ],
      [
        "å",
        "ľ"
      ],
      [
        "k",
        "o"
      ],
      [
        "Ġele",
        "ments"
      ],
      [
        "z",
        "a"
      ],
      [
        "Ġsub",
        "set"
      ],
      [
        "h",
        "en"
      ],
      [
        "Ġm",
        "ul"
      ],
      [
        "b",
        "e"
      ],
      [
        "Ġt",
        "erm"
      ],
      [
        "å",
        "ħ"
      ],
      [
        "Ġinfin",
        "ite"
      ],
      [
        "n",
        "o"
      ],
      [
        "Ġg",
        "et"
      ],
      [
        "ng",
        "ulo"
      ],
      [
        "Ġ(",
        "$"
      ],
      [
        "Ġplay",
        "er"
      ],
      [
        "Ġlarg",
        "est"
      ],
      [
        "Ġnatur",
        "al"
      ],
      [
        "Ã",
        "¢"
      ],
      [
        "ith",
        "er"
      ],
      [
        "Ġta",
        "ble"
      ],
      [
        "é",
        "»"
      ],
      [
        "Ġc",
        "enter"
      ],
      [
        "iti",
        "on"
      ],
      [
        "im",
        "al"
      ],
      [
        "Ġe",
        "d"
      ],
      [
        "Ġdi",
        "e"
      ],
      [
        "Ġd",
        "raw"
      ],
      [
        "ri",
        "d"
      ],
      [
        "Ġl",
        "o"
      ],
      [
        "u",
        "al"
      ],
      [
        "Ġp",
        "e"
      ],
      [
        "Ġin",
        "c"
      ],
      [
        "i",
        "x"
      ],
      [
        "Ġpro",
        "per"
      ],
      [
        "i",
        "us"
      ],
      [
        "Ġsec",
        "ond"
      ],
      [
        "om",
        "p"
      ],
      [
        "Ġp",
        "or"
      ],
      [
        "Ġn",
        "a"
      ],
      [
        "Ġcol",
        "um"
      ],
      [
        "Ġcirc",
        "les"
      ],
      [
        "Ġ",
        "}"
      ],
      [
        "Ġm",
        "ar"
      ],
      [
        "ÑĢ",
        "Ðµ"
      ],
      [
        "Ġco",
        "e"
      ],
      [
        "ve",
        "x"
      ],
      [
        "æľ",
        "ī"
      ],
      [
        "Ġthe",
        "y"
      ],
      [
        "ĠS",
        "uppose"
      ],
      [
        "os",
        "en"
      ],
      [
        "}",
        "."
      ],
      [
        "Ġ",
        "us"
      ],
      [
        "Ġint",
        "eri"
      ],
      [
        "Ġver",
        "tex"
      ],
      [
        "é»",
        "ŀ"
      ],
      [
        "Ġt",
        "ra"
      ],
      [
        "9",
        "9"
      ],
      [
        "ro",
        "s"
      ],
      [
        "am",
        "ente"
      ],
      [
        "ĠÑ",
        "ĩ"
      ],
      [
        "Ġmax",
        "imum"
      ],
      [
        "ĠÃ",
        "ł"
      ],
      [
        "Ġcoe",
        "ffici"
      ],
      [
        "Ġg",
        "o"
      ],
      [
        "crib",
        "ed"
      ],
      [
        "'",
        "s"
      ],
      [
        "r",
        "floor"
      ],
      [
        "Ġre",
        "d"
      ],
      [
        "l",
        "floor"
      ],
      [
        "Ġun",
        "d"
      ],
      [
        "Ġcolum",
        "n"
      ],
      [
        "ĠÐ½",
        "Ð°"
      ],
      [
        "Ġ",
        "J"
      ],
      [
        "Ġprodu",
        "ct"
      ],
      [
        "g",
        "es"
      ],
      [
        "ig",
        "n"
      ],
      [
        "Ġch",
        "osen"
      ],
      [
        "Ġrect",
        "angle"
      ],
      [
        "m",
        "et"
      ],
      [
        "Ġs",
        "on"
      ],
      [
        "Ġwh",
        "ose"
      ],
      [
        "Ġfunction",
        "s"
      ],
      [
        "æ",
        "ĸ"
      ],
      [
        "Ġd",
        "ec"
      ],
      [
        "ĠB",
        "C"
      ],
      [
        "Ġ",
        "Y"
      ],
      [
        "Ġo",
        "s"
      ],
      [
        "Ã",
        "ª"
      ],
      [
        "ons",
        "ider"
      ],
      [
        "ĠS",
        "e"
      ],
      [
        "i",
        "an"
      ],
      [
        "Ġc",
        "ada"
      ],
      [
        "Ġen",
        "ti"
      ],
      [
        "ar",
        "y"
      ],
      [
        "Ġcon",
        "vex"
      ],
      [
        "i",
        "ght"
      ],
      [
        "Ġm",
        "ost"
      ],
      [
        "]",
        "$"
      ],
      [
        "Ġint",
        "er"
      ],
      [
        "qu",
        "e"
      ],
      [
        "eg",
        "ative"
      ],
      [
        "Ġst",
        "ud"
      ],
      [
        "ic",
        "e"
      ],
      [
        "ĠÃ",
        "¨"
      ],
      [
        "k",
        "a"
      ],
      [
        "Ġper",
        "f"
      ],
      [
        "un",
        "t"
      ],
      [
        "ad",
        "os"
      ],
      [
        "ow",
        "n"
      ],
      [
        "bo",
        "ard"
      ],
      [
        "$",
        ";"
      ],
      [
        "å",
        "Ī"
      ],
      [
        "Ġt",
        "e"
      ],
      [
        "in",
        "t"
      ],
      [
        "Ġd",
        "os"
      ],
      [
        "an",
        "ce"
      ],
      [
        "Ġli",
        "e"
      ],
      [
        "Ġmeet",
        "s"
      ],
      [
        "Ġe",
        "ither"
      ],
      [
        "Ġpro",
        "ve"
      ],
      [
        "Ġmul",
        "ti"
      ],
      [
        "y",
        "c"
      ],
      [
        "Ġwh",
        "en"
      ],
      [
        "Ġt",
        "r"
      ],
      [
        "Ġo",
        "ut"
      ],
      [
        "w",
        "ise"
      ],
      [
        "Ġ",
        "ra"
      ],
      [
        "Ġs",
        "c"
      ],
      [
        "tion",
        "s"
      ],
      [
        "Ġd",
        "er"
      ],
      [
        "ec",
        "u"
      ],
      [
        "r",
        "am"
      ],
      [
        "Ð¾",
        "Ð»"
      ],
      [
        "n",
        "ot"
      ],
      [
        "Ġb",
        "ut"
      ],
      [
        "S",
        "e"
      ],
      [
        "Ġc",
        "l"
      ],
      [
        "w",
        "er"
      ],
      [
        "Ġmo",
        "re"
      ],
      [
        "Ġ",
        "çļĦ"
      ],
      [
        "Ġh",
        "is"
      ],
      [
        "Ġ",
        "X"
      ],
      [
        "Ġles",
        "s"
      ],
      [
        "Ġcontain",
        "s"
      ],
      [
        "}",
        "^"
      ],
      [
        "u",
        "ch"
      ],
      [
        "en",
        "ti"
      ],
      [
        "as",
        "es"
      ],
      [
        "Ġw",
        "ay"
      ],
      [
        "Ġcons",
        "ecu"
      ],
      [
        "Ġd",
        "is"
      ],
      [
        "omp",
        "ute"
      ],
      [
        "Ġ",
        "up"
      ],
      [
        "Ġsol",
        "u"
      ],
      [
        "Ġbisect",
        "or"
      ],
      [
        "Ã",
        "¼"
      ],
      [
        "Ġdiv",
        "id"
      ],
      [
        "Ġrad",
        "ius"
      ],
      [
        "ri",
        "c"
      ],
      [
        "et",
        "a"
      ],
      [
        "ĠA",
        "n"
      ],
      [
        "i",
        "f"
      ],
      [
        "i",
        "gh"
      ],
      [
        "Ġod",
        "d"
      ],
      [
        "Ġpar",
        "a"
      ],
      [
        "Ġk",
        "n"
      ],
      [
        "ga",
        "in"
      ],
      [
        "Ð",
        "±"
      ],
      [
        "Ġ",
        "ve"
      ],
      [
        "Ġfin",
        "ite"
      ],
      [
        "Ġm",
        "ed"
      ],
      [
        "$",
        ")"
      ],
      [
        "n",
        "egative"
      ],
      [
        "Ġcon",
        "c"
      ],
      [
        "p",
        "ar"
      ],
      [
        "~",
        "\\"
      ],
      [
        "m",
        "id"
      ],
      [
        "å",
        "°"
      ],
      [
        "Ġa",
        "gain"
      ],
      [
        "Ġa",
        "u"
      ],
      [
        "Ġh",
        "ow"
      ],
      [
        "ÑĤ",
        "Ðµ"
      ],
      [
        "Ġequ",
        "il"
      ],
      [
        ".",
        ")"
      ],
      [
        "j",
        "a"
      ],
      [
        "Ġre",
        "ma"
      ],
      [
        "alle",
        "d"
      ],
      [
        "Ġg",
        "rid"
      ],
      [
        "eg",
        "in"
      ],
      [
        "el",
        "s"
      ],
      [
        "Ġc",
        "ent"
      ],
      [
        "b",
        "egin"
      ],
      [
        "Ġc",
        "alled"
      ],
      [
        "h",
        "o"
      ],
      [
        "Å",
        "¾"
      ],
      [
        "Ġ",
        "\""
      ],
      [
        "Ġ",
        "Å¡"
      ],
      [
        "Ġal",
        "so"
      ],
      [
        "Ġcoeffici",
        "ents"
      ],
      [
        "z",
        "e"
      ],
      [
        "Ġins",
        "ide"
      ],
      [
        "Ġpositi",
        "v"
      ],
      [
        "us",
        "t"
      ],
      [
        "em",
        "p"
      ],
      [
        "ĠW",
        "e"
      ],
      [
        "c",
        "os"
      ],
      [
        "o",
        "it"
      ],
      [
        "Ġmo",
        "ves"
      ],
      [
        "Ġ2",
        "00"
      ],
      [
        "Ġg",
        "ro"
      ],
      [
        "p",
        "os"
      ],
      [
        "at",
        "or"
      ],
      [
        "Ġmin",
        "imum"
      ],
      [
        "Ġal",
        "t"
      ],
      [
        "Ġh",
        "ol"
      ],
      [
        "Ġcon",
        "st"
      ],
      [
        "i",
        "es"
      ],
      [
        "k",
        "s"
      ],
      [
        "Ġperf",
        "ect"
      ],
      [
        "c",
        "rit"
      ],
      [
        "Ġa",
        "m"
      ],
      [
        "Ġum",
        "a"
      ],
      [
        "Ġa",
        "fter"
      ],
      [
        "Ġ",
        "V"
      ],
      [
        "Ð",
        "¿"
      ],
      [
        "Ġy",
        "ou"
      ],
      [
        "Ġex",
        "am"
      ],
      [
        "Ġv",
        "an"
      ],
      [
        "th",
        "o"
      ],
      [
        "i",
        "le"
      ],
      [
        "Ġ1",
        "2"
      ],
      [
        "Ġar",
        "r"
      ],
      [
        "ĠH",
        "ow"
      ],
      [
        "åĢ",
        "ĭ"
      ],
      [
        "a",
        "h"
      ],
      [
        "en",
        "s"
      ],
      [
        "Ġs",
        "he"
      ],
      [
        "Ġbo",
        "x"
      ],
      [
        "un",
        "k"
      ],
      [
        "Ġ",
        "AB"
      ],
      [
        "an",
        "o"
      ],
      [
        "Ġpar",
        "ti"
      ],
      [
        "\\",
        "}"
      ],
      [
        "Ð½",
        "Ð°"
      ],
      [
        "Ġpar",
        "t"
      ],
      [
        "Ġde",
        "fin"
      ],
      [
        "ĠI",
        "t"
      ],
      [
        "eterm",
        "in"
      ],
      [
        "Ð¸",
        "Ñģ"
      ],
      [
        "ĠE",
        "ach"
      ],
      [
        "Ġcons",
        "ider"
      ],
      [
        "v",
        "ing"
      ],
      [
        "le",
        "n"
      ],
      [
        "æķ",
        "´"
      ],
      [
        "Ġgre",
        "ater"
      ],
      [
        "Ð²",
        "Ð°"
      ],
      [
        "te",
        "v"
      ],
      [
        "u",
        "b"
      ],
      [
        "ä",
        "½"
      ],
      [
        "i",
        "en"
      ],
      [
        "Ġreg",
        "ular"
      ],
      [
        "A",
        "P"
      ],
      [
        "Ġexam",
        "ple"
      ],
      [
        "\\",
        "{"
      ],
      [
        "f",
        "ine"
      ],
      [
        "æ",
        "ĺ"
      ],
      [
        "Ġdi",
        "am"
      ],
      [
        "Ġle",
        "ft"
      ],
      [
        "Ġproper",
        "ty"
      ],
      [
        "re",
        "d"
      ],
      [
        "Ġl",
        "as"
      ],
      [
        "Ġ",
        "è"
      ],
      [
        "ad",
        "e"
      ],
      [
        "Ġcer",
        "c"
      ],
      [
        "c",
        "m"
      ],
      [
        "ac",
        "e"
      ],
      [
        "n",
        "er"
      ],
      [
        "Ġw",
        "in"
      ],
      [
        "Ġbl",
        "ue"
      ],
      [
        "Ġs",
        "im"
      ],
      [
        "om",
        "b"
      ],
      [
        "ĠO",
        "n"
      ],
      [
        "Ġcard",
        "s"
      ],
      [
        "at",
        "ed"
      ],
      [
        "ci",
        "a"
      ],
      [
        "x",
        "y"
      ],
      [
        "h",
        "er"
      ],
      [
        "i",
        "er"
      ],
      [
        "Ġto",
        "d"
      ],
      [
        "an",
        "s"
      ],
      [
        "an",
        "te"
      ],
      [
        "Ġ",
        "ent"
      ],
      [
        "Ġm",
        "ay"
      ],
      [
        "c",
        "o"
      ],
      [
        "u",
        "i"
      ],
      [
        "Ġor",
        "tho"
      ],
      [
        "ation",
        "s"
      ],
      [
        "æ",
        "ī"
      ],
      [
        "}{",
        "\\"
      ],
      [
        "Ġplay",
        "ers"
      ],
      [
        "it",
        "ud"
      ],
      [
        "on",
        "e"
      ],
      [
        "Ġ9",
        "0"
      ],
      [
        "Ġs",
        "how"
      ],
      [
        "t",
        "al"
      ],
      [
        "Ġf",
        "ig"
      ],
      [
        "S",
        "uppose"
      ],
      [
        "Ġconsecu",
        "tive"
      ],
      [
        "Ġp",
        "u"
      ],
      [
        "iti",
        "ons"
      ],
      [
        "Ġen",
        "d"
      ],
      [
        "Ġ",
        "q"
      ],
      [
        "Ġro",
        "o"
      ],
      [
        "Ġins",
        "cribed"
      ],
      [
        "Ġgro",
        "up"
      ],
      [
        "Ġg",
        "e"
      ],
      [
        "si",
        "g"
      ],
      [
        "æĸ",
        "¼"
      ],
      [
        "Ġcon",
        "t"
      ],
      [
        "ont",
        "r"
      ],
      [
        "ar",
        "r"
      ],
      [
        "Ġs",
        "te"
      ],
      [
        "D",
        "E"
      ],
      [
        "Ġequil",
        "ateral"
      ],
      [
        "Ġdi",
        "re"
      ],
      [
        "Ġ20",
        "2"
      ],
      [
        "Ã",
        "¨"
      ],
      [
        "Ð½",
        "Ñĭ"
      ],
      [
        "geq",
        "slant"
      ],
      [
        "--",
        "-"
      ],
      [
        "yc",
        "lic"
      ],
      [
        "tev",
        "il"
      ],
      [
        "v",
        "al"
      ],
      [
        "Ġm",
        "et"
      ],
      [
        "Ġa",
        "b"
      ],
      [
        "Ġlength",
        "s"
      ],
      [
        "Ġinteri",
        "or"
      ],
      [
        "Ġto",
        "tal"
      ],
      [
        ")",
        "+"
      ],
      [
        "ol",
        "o"
      ],
      [
        "Ðµ",
        "ÑĤ"
      ],
      [
        "ce",
        "les"
      ],
      [
        "ul",
        "t"
      ],
      [
        "Ġo",
        "u"
      ],
      [
        "ft",
        "y"
      ],
      [
        "ä",
        "º"
      ],
      [
        "Ġalt",
        "itud"
      ],
      [
        "le",
        "ction"
      ],
      [
        "Ġc",
        "as"
      ],
      [
        "Ġwh",
        "ite"
      ],
      [
        "Ġpi",
        "ec"
      ],
      [
        "ĠP",
        "oin"
      ],
      [
        "c",
        "a"
      ],
      [
        "ore",
        "d"
      ],
      [
        "*",
        "*"
      ],
      [
        "in",
        "fty"
      ],
      [
        "Å",
        "£"
      ],
      [
        "å",
        "Ĳ"
      ],
      [
        "h",
        "a"
      ],
      [
        "Ñģ",
        "ÑĤ"
      ],
      [
        "_",
        "_"
      ],
      [
        "Ġe",
        "en"
      ],
      [
        "Ġto",
        "uch"
      ],
      [
        "ĠÃ",
        "®"
      ],
      [
        "y",
        "s"
      ],
      [
        "Ñ",
        "ĺ"
      ],
      [
        "æ",
        "Ń"
      ],
      [
        "Ġ",
        "["
      ],
      [
        "ation",
        "al"
      ],
      [
        "â",
        "Ģ"
      ],
      [
        "ul",
        "d"
      ],
      [
        "o",
        "per"
      ],
      [
        "Ġad",
        "j"
      ],
      [
        "s",
        "in"
      ],
      [
        "B",
        "E"
      ],
      [
        "C",
        "onsider"
      ],
      [
        "Ġdivis",
        "ors"
      ],
      [
        "$",
        ")."
      ],
      [
        "Ã³",
        "n"
      ],
      [
        "æķ´",
        "æķ¸"
      ],
      [
        ")",
        "\\"
      ],
      [
        "u",
        "x"
      ],
      [
        "Ġwh",
        "o"
      ],
      [
        "Ġpoly",
        "gon"
      ],
      [
        "O",
        "m"
      ],
      [
        "Om",
        "ega"
      ],
      [
        "ç",
        "Ľ"
      ],
      [
        "Ġb",
        "all"
      ],
      [
        "ur",
        "a"
      ],
      [
        "Ġal",
        "le"
      ],
      [
        "Ġtim",
        "e"
      ],
      [
        "Ġtim",
        "es"
      ],
      [
        "ac",
        "ent"
      ],
      [
        "1",
        "3"
      ],
      [
        "Ġstud",
        "ents"
      ],
      [
        "Ġo",
        "ver"
      ],
      [
        "Ġre",
        "l"
      ],
      [
        "å",
        "¾"
      ],
      [
        "Ġa",
        "pp"
      ],
      [
        "ar",
        "a"
      ],
      [
        "Ġ",
        "U"
      ],
      [
        "Ġi",
        "m"
      ],
      [
        "ontr",
        "er"
      ],
      [
        "n",
        "ame"
      ],
      [
        "Ġn",
        "ec"
      ],
      [
        "Ġpun",
        "to"
      ],
      [
        "Ġob",
        "tain"
      ],
      [
        "P",
        "Q"
      ],
      [
        "a",
        "g"
      ],
      [
        "p",
        "ri"
      ],
      [
        "Ġm",
        "at"
      ],
      [
        "Ġdiv",
        "ides"
      ],
      [
        "ĠZ",
        "ah"
      ],
      [
        "ator",
        "name"
      ],
      [
        "oper",
        "atorname"
      ],
      [
        "X",
        "Y"
      ],
      [
        "Ġ",
        "çĤº"
      ],
      [
        "Ġh",
        "o"
      ],
      [
        "equ",
        "al"
      ],
      [
        "m",
        "os"
      ],
      [
        "Ġp",
        "ers"
      ],
      [
        "os",
        "celes"
      ],
      [
        "Ġcom",
        "ple"
      ],
      [
        "A",
        "E"
      ],
      [
        "o",
        "b"
      ],
      [
        "al",
        "ign"
      ],
      [
        "Ġm",
        "en"
      ],
      [
        "Ġcond",
        "itions"
      ],
      [
        "\\",
        "}$."
      ],
      [
        "Ġw",
        "ays"
      ],
      [
        "Ġd",
        "etermine"
      ],
      [
        "ĠQ",
        "u"
      ],
      [
        "g",
        "in"
      ],
      [
        "Ġdivid",
        "ed"
      ],
      [
        "Ġadj",
        "acent"
      ],
      [
        "w",
        "ays"
      ],
      [
        "Ġbe",
        "l"
      ],
      [
        "Ġ",
        "ÑĤÐ¾"
      ],
      [
        "Ġcho",
        "ose"
      ],
      [
        "Ġdiagonal",
        "s"
      ],
      [
        "å",
        "¤"
      ],
      [
        "Ġ",
        "/"
      ],
      [
        "Ġp",
        "erm"
      ],
      [
        "Ġe",
        "ven"
      ],
      [
        "iti",
        "es"
      ],
      [
        "ĠC",
        "ompute"
      ],
      [
        "Ġsm",
        "all"
      ],
      [
        ")",
        "}"
      ],
      [
        "Ġo",
        "pp"
      ],
      [
        "Ġl",
        "at"
      ],
      [
        "Ġex",
        "pres"
      ],
      [
        "Ġre",
        "pres"
      ],
      [
        "Ġinfinite",
        "ly"
      ],
      [
        "1",
        "6"
      ],
      [
        "Ġin",
        "equal"
      ],
      [
        "Ġmidpoin",
        "ts"
      ],
      [
        "ri",
        "end"
      ],
      [
        "g",
        "amma"
      ],
      [
        "Ġcon",
        "n"
      ],
      [
        "Ġta",
        "ke"
      ],
      [
        "Ġdefin",
        "ed"
      ],
      [
        "Ġmar",
        "k"
      ],
      [
        "a",
        "z"
      ],
      [
        "Ġal",
        "ways"
      ],
      [
        "n",
        "ing"
      ],
      [
        "Ðº",
        "Ð¾"
      ],
      [
        "A",
        "M"
      ],
      [
        "Ġe",
        "in"
      ],
      [
        "ĠÅ¡",
        "tevil"
      ],
      [
        "a",
        "j"
      ],
      [
        "Ġcircum",
        "center"
      ],
      [
        "al",
        "c"
      ],
      [
        "ter",
        "n"
      ],
      [
        "Ġarr",
        "ang"
      ],
      [
        "æī",
        "Ģ"
      ],
      [
        "1",
        "5"
      ],
      [
        "Ġang",
        "les"
      ],
      [
        "k",
        "es"
      ],
      [
        "Ġg",
        "r"
      ],
      [
        "Ġgre",
        "at"
      ],
      [
        "T",
        "here"
      ],
      [
        "o",
        "g"
      ],
      [
        "Ġs",
        "ch"
      ],
      [
        "Ġb",
        "ase"
      ],
      [
        "Ġde",
        "g"
      ],
      [
        "Ã§",
        "Ã£o"
      ],
      [
        "ç",
        "·"
      ],
      [
        "Ġ",
        "ä¸"
      ],
      [
        "Ġo",
        "per"
      ],
      [
        "Ġpass",
        "es"
      ],
      [
        "2",
        "5"
      ],
      [
        "w",
        "ide"
      ],
      [
        "}",
        "_{"
      ],
      [
        "Ðµ",
        "Ð½"
      ],
      [
        "Ġco",
        "ins"
      ],
      [
        "Ġgreat",
        "est"
      ],
      [
        "c",
        "c"
      ],
      [
        "align",
        "ed"
      ],
      [
        "t",
        "os"
      ],
      [
        "for",
        "m"
      ],
      [
        "ur",
        "re"
      ],
      [
        "wide",
        "hat"
      ],
      [
        "æ",
        "Ī"
      ],
      [
        "Ã¼",
        "r"
      ],
      [
        "os",
        "ite"
      ],
      [
        "Ġse",
        "m"
      ],
      [
        "Ġdist",
        "ance"
      ],
      [
        "Ġpass",
        "ing"
      ],
      [
        "æŃ",
        "£"
      ],
      [
        "A",
        "n"
      ],
      [
        "te",
        "m"
      ],
      [
        "Ġco",
        "in"
      ],
      [
        "S",
        "how"
      ],
      [
        "Ñ",
        "Ī"
      ],
      [
        "Ġg",
        "ra"
      ],
      [
        "Ġar",
        "c"
      ],
      [
        "Ġson",
        "o"
      ],
      [
        "a",
        "k"
      ],
      [
        "c",
        "d"
      ],
      [
        "Ñ",
        "Ĩ"
      ],
      [
        "im",
        "o"
      ],
      [
        "Ġst",
        "art"
      ],
      [
        "È",
        "Ľ"
      ],
      [
        "Ġs",
        "p"
      ],
      [
        "Ġnec",
        "ess"
      ],
      [
        "ç·",
        "ļ"
      ],
      [
        "d",
        "ig"
      ],
      [
        "Ġc",
        "a"
      ],
      [
        "Ġwh",
        "at"
      ],
      [
        "b",
        "it"
      ],
      [
        "Ń",
        "ī"
      ],
      [
        "Ġ1",
        "5"
      ],
      [
        "Ð»",
        "Ð¸"
      ],
      [
        "Ġroo",
        "ts"
      ],
      [
        "Ġd",
        "u"
      ],
      [
        "Ġw",
        "ins"
      ],
      [
        "ab",
        "il"
      ],
      [
        "ti",
        "v"
      ],
      [
        "Ġv",
        "on"
      ],
      [
        "Ġi",
        "g"
      ],
      [
        "Ġdraw",
        "n"
      ],
      [
        "lic",
        "e"
      ],
      [
        "o",
        "ther"
      ],
      [
        "å",
        "ı"
      ],
      [
        "in",
        "om"
      ],
      [
        "Ġo",
        "p"
      ],
      [
        "Ġn",
        "omb"
      ],
      [
        "Ġm",
        "ust"
      ],
      [
        "Ġre",
        "f"
      ],
      [
        "ÑĢ",
        "Ð¸"
      ],
      [
        "ĠG",
        "iven"
      ],
      [
        "Ġterm",
        "s"
      ],
      [
        "Ġam",
        "ong"
      ],
      [
        "Ġ",
        "u"
      ],
      [
        "el",
        "le"
      ],
      [
        "Ġinequal",
        "ity"
      ],
      [
        "Ò",
        "¯"
      ],
      [
        "S",
        "oit"
      ],
      [
        "Ġd",
        "at"
      ],
      [
        "Ġdiam",
        "eter"
      ],
      [
        "Ġ",
        "er"
      ],
      [
        "en",
        "ote"
      ],
      [
        "..",
        "."
      ],
      [
        ")",
        "}{"
      ],
      [
        "u",
        "le"
      ],
      [
        "Ġal",
        "g"
      ],
      [
        "Ġco",
        "ll"
      ],
      [
        "lo",
        "ck"
      ],
      [
        "Ġequal",
        "ity"
      ],
      [
        "W",
        "e"
      ],
      [
        "|",
        "$."
      ],
      [
        "in",
        "o"
      ],
      [
        "Ġo",
        "ri"
      ],
      [
        "Ġhe",
        "x"
      ],
      [
        "s",
        "wer"
      ],
      [
        "ĠÃ®",
        "n"
      ],
      [
        "Ġpro",
        "b"
      ],
      [
        "Ġte",
        "am"
      ],
      [
        "b",
        "eta"
      ],
      [
        "r",
        "an"
      ],
      [
        "Å",
        "Ł"
      ],
      [
        "Ī",
        "ĩ"
      ],
      [
        "Ġf",
        "riend"
      ],
      [
        "Ġv",
        "ol"
      ],
      [
        "Ġr",
        "ational"
      ],
      [
        "Ġplac",
        "ed"
      ],
      [
        "i",
        "z"
      ],
      [
        "v",
        "o"
      ],
      [
        "en",
        "ces"
      ],
      [
        "c",
        "ases"
      ],
      [
        "p",
        "m"
      ],
      [
        "Ġis",
        "osceles"
      ],
      [
        "Ġl",
        "ast"
      ],
      [
        "Ġ1",
        "3"
      ],
      [
        "Ġcol",
        "our"
      ],
      [
        "Ġcho",
        "os"
      ],
      [
        "dig",
        "it"
      ],
      [
        "a",
        "les"
      ],
      [
        "p",
        "les"
      ],
      [
        "Ġun",
        "i"
      ],
      [
        "M",
        "N"
      ],
      [
        "w",
        "here"
      ],
      [
        "Ġd",
        "ass"
      ],
      [
        "Ġhol",
        "ds"
      ],
      [
        "Ġprob",
        "abil"
      ],
      [
        "j",
        "e"
      ],
      [
        "k",
        "en"
      ],
      [
        "ll",
        "a"
      ],
      [
        "ine",
        "ar"
      ],
      [
        "Ġar",
        "bit"
      ],
      [
        "Ġed",
        "ges"
      ],
      [
        "'",
        "$,"
      ],
      [
        "è",
        "¨"
      ],
      [
        "Ġpolynomial",
        "s"
      ],
      [
        "a",
        "ble"
      ],
      [
        "e",
        "ar"
      ],
      [
        "Ġpos",
        "s"
      ],
      [
        "Ġcu",
        "be"
      ],
      [
        "ord",
        "in"
      ],
      [
        "Ġsubset",
        "s"
      ],
      [
        "par",
        "allel"
      ],
      [
        "å",
        "½"
      ],
      [
        "Ġcerc",
        "le"
      ],
      [
        "I",
        "f"
      ],
      [
        "åľ",
        "¨"
      ],
      [
        "Ġ1",
        "1"
      ],
      [
        "Ġch",
        "ess"
      ],
      [
        "ando",
        "m"
      ],
      [
        "at",
        "h"
      ],
      [
        "Ġan",
        "other"
      ],
      [
        "Ġset",
        "s"
      ],
      [
        "Ġdivis",
        "or"
      ],
      [
        "Ġ:",
        "---"
      ],
      [
        "Ġ$",
        "-"
      ],
      [
        "Ġblack",
        "board"
      ],
      [
        "l",
        "a"
      ],
      [
        "Ġpo",
        "l"
      ],
      [
        "Ġr",
        "andom"
      ],
      [
        "Ġhex",
        "agon"
      ],
      [
        "o",
        "ple"
      ],
      [
        "us",
        "e"
      ],
      [
        "Ġperm",
        "ut"
      ],
      [
        "=",
        "\\"
      ],
      [
        "H",
        "ow"
      ],
      [
        "urre",
        "nt"
      ],
      [
        "d",
        "a"
      ],
      [
        "is",
        "ts"
      ],
      [
        "on",
        "st"
      ],
      [
        "b",
        "er"
      ],
      [
        "Ġf",
        "e"
      ],
      [
        "å½",
        "¢"
      ],
      [
        "c",
        "ap"
      ],
      [
        "Ġs",
        "Ã£o"
      ],
      [
        "at",
        "es"
      ],
      [
        "Ġf",
        "ac"
      ],
      [
        "Ġon",
        "ce"
      ],
      [
        "ĠÐ",
        "·"
      ],
      [
        "Ġnecess",
        "ari"
      ],
      [
        "i",
        "ro"
      ],
      [
        "Ġp",
        "ent"
      ],
      [
        "Ġsu",
        "r"
      ],
      [
        "Ġmulti",
        "ple"
      ],
      [
        "Ġsolu",
        "tions"
      ],
      [
        "$",
        "ãĢĤ"
      ],
      [
        "Ġpo",
        "ur"
      ],
      [
        "Ġde",
        "ux"
      ],
      [
        "Ġex",
        "ce"
      ],
      [
        "ĠC",
        "D"
      ],
      [
        "fer",
        "en"
      ],
      [
        "Ġpe",
        "ople"
      ],
      [
        "an",
        "ts"
      ],
      [
        "ĠÐ¿",
        "Ð¾"
      ],
      [
        "m",
        "in"
      ],
      [
        "}",
        ")"
      ],
      [
        "ve",
        "l"
      ],
      [
        "Ġcol",
        "ored"
      ],
      [
        "Ġsatisf",
        "ies"
      ],
      [
        "Ġcoll",
        "inear"
      ],
      [
        "re",
        "as"
      ],
      [
        "ĠA",
        "t"
      ],
      [
        "Ġd",
        "ro"
      ],
      [
        "Ġin",
        "circle"
      ],
      [
        "Ġf",
        "ix"
      ],
      [
        "et",
        "her"
      ],
      [
        "Ġtri",
        "Ã¡"
      ],
      [
        "ĠB",
        "AC"
      ],
      [
        "o",
        "us"
      ],
      [
        "Ġd",
        "own"
      ],
      [
        "Ġa",
        "p"
      ],
      [
        "ĠÐ",
        "¼"
      ],
      [
        "ĠT",
        "hen"
      ],
      [
        "g",
        "o"
      ],
      [
        "Ġc",
        "Äĥ"
      ],
      [
        "Ġre",
        "t"
      ],
      [
        "åľ",
        "ĵ"
      ],
      [
        "z",
        "ero"
      ],
      [
        "è",
        "§"
      ],
      [
        "Ġun",
        "e"
      ],
      [
        "Ġpair",
        "wise"
      ],
      [
        "Å¡",
        "Äį"
      ],
      [
        "Ġrepres",
        "ent"
      ],
      [
        "Ġs",
        "ont"
      ],
      [
        "ĠĠ",
        "ĠĠ"
      ],
      [
        "\\",
        "}$,"
      ],
      [
        "Ġpar",
        "alle"
      ],
      [
        "æŃ£",
        "æķ´æķ¸"
      ],
      [
        "ĠI",
        "s"
      ],
      [
        "Ġcol",
        "ors"
      ],
      [
        "æĺ",
        "¯"
      ],
      [
        "Ġm",
        "em"
      ],
      [
        "Ġh",
        "et"
      ],
      [
        "Ð»",
        "Ð¾"
      ],
      [
        "ä¸",
        "Ń"
      ],
      [
        "Ġprobabil",
        "ity"
      ],
      [
        "v",
        "a"
      ],
      [
        "Ġs",
        "it"
      ],
      [
        "ĠT",
        "here"
      ],
      [
        "Ġseg",
        "u"
      ],
      [
        "Ġturn",
        "s"
      ],
      [
        "Ġball",
        "s"
      ],
      [
        "Ġ",
        "entre"
      ],
      [
        "ec",
        "ted"
      ],
      [
        "Ġi",
        "z"
      ],
      [
        "Ġenti",
        "er"
      ],
      [
        "4",
        "0"
      ],
      [
        "i",
        "ed"
      ],
      [
        "r",
        "ite"
      ],
      [
        "t",
        "d"
      ],
      [
        "Ġd",
        "ue"
      ],
      [
        "Ġdec",
        "imal"
      ],
      [
        "Ġtod",
        "os"
      ],
      [
        "æīĢ",
        "æľī"
      ],
      [
        "ĥ",
        "½"
      ],
      [
        "angle",
        "d"
      ],
      [
        "ĠD",
        "e"
      ],
      [
        "Ð³",
        "Ð¾"
      ],
      [
        "Ġopp",
        "osite"
      ],
      [
        ">",
        "<"
      ],
      [
        "Ġt",
        "al"
      ],
      [
        "Ġin",
        "iti"
      ],
      [
        "Ġm",
        "it"
      ],
      [
        "ĠD",
        "enote"
      ],
      [
        "Ð¶",
        "Ð¸"
      ],
      [
        "Ġcan",
        "not"
      ],
      [
        "Ġem",
        "p"
      ],
      [
        "ros",
        "s"
      ],
      [
        "å°",
        "į"
      ],
      [
        "è§",
        "Ĵ"
      ],
      [
        "c",
        "ed"
      ],
      [
        "å",
        "Ń"
      ],
      [
        "Ġc",
        "entre"
      ],
      [
        "an",
        "ti"
      ],
      [
        "Ġm",
        "es"
      ],
      [
        "ang",
        "e"
      ],
      [
        "Ġkn",
        "own"
      ],
      [
        "Ġan",
        "swer"
      ],
      [
        "Ġall",
        "ow"
      ],
      [
        "ä¸",
        "ī"
      ],
      [
        "i",
        "b"
      ],
      [
        "Ġnum",
        "ero"
      ],
      [
        "ur",
        "s"
      ],
      [
        "Ġst",
        "ar"
      ],
      [
        "Ġdiv",
        "ide"
      ],
      [
        "Ġne",
        "igh"
      ],
      [
        "5",
        "0"
      ],
      [
        "a",
        "is"
      ],
      [
        "Ġ",
        "."
      ],
      [
        "Ġw",
        "as"
      ],
      [
        "ed",
        "ro"
      ],
      [
        "Ġ1",
        "6"
      ],
      [
        "ol",
        "a"
      ],
      [
        "ĠB",
        "ob"
      ],
      [
        "log",
        "ram"
      ],
      [
        "Ġ",
        "ÑĤ"
      ],
      [
        "Ġ",
        "ÅŁ"
      ],
      [
        "per",
        "p"
      ],
      [
        "ost",
        "r"
      ],
      [
        "i",
        "re"
      ],
      [
        "}",
        "}$"
      ],
      [
        "ul",
        "os"
      ],
      [
        "Ġcirc",
        "un"
      ],
      [
        "unk",
        "t"
      ],
      [
        "Ġpers",
        "on"
      ],
      [
        "ci",
        "p"
      ],
      [
        "Ġed",
        "ge"
      ],
      [
        "Ġgo",
        "od"
      ],
      [
        "Ġe",
        "ine"
      ],
      [
        "ad",
        "s"
      ],
      [
        "Ġtri",
        "ang"
      ],
      [
        "Ġta",
        "b"
      ],
      [
        "Ġad",
        "d"
      ],
      [
        "am",
        "b"
      ],
      [
        "Ġ",
        "ÑĤÐ°"
      ],
      [
        "Ġc",
        "yclic"
      ],
      [
        "Ġf",
        "li"
      ],
      [
        "leq",
        "slant"
      ],
      [
        "Ġnecessari",
        "ly"
      ],
      [
        "r",
        "ary"
      ],
      [
        "x",
        "t"
      ],
      [
        "}",
        ")$"
      ],
      [
        "é",
        "ģ"
      ],
      [
        "Ð»",
        "Ð°"
      ],
      [
        "ĠÃ",
        "¡"
      ],
      [
        "Ġquad",
        "r"
      ],
      [
        "o",
        "uld"
      ],
      [
        "|",
        "$"
      ],
      [
        "Ġ",
        "âĢ"
      ],
      [
        "Ġco",
        "ordin"
      ],
      [
        "Ġper",
        "im"
      ],
      [
        "Ġchoos",
        "es"
      ],
      [
        "O",
        "n"
      ],
      [
        "è",
        "©"
      ],
      [
        "Ġ",
        "?"
      ],
      [
        "Ġin",
        "center"
      ],
      [
        "or",
        "t"
      ],
      [
        "Ġal",
        "ong"
      ],
      [
        "Ġla",
        "do"
      ],
      [
        "Ġsmall",
        "er"
      ],
      [
        "Ð»",
        "ÑĮ"
      ],
      [
        "met",
        "ic"
      ],
      [
        "Ġortho",
        "center"
      ],
      [
        "è¨",
        "Ń"
      ],
      [
        "arr",
        "ay"
      ],
      [
        "Ġmark",
        "ed"
      ],
      [
        "o",
        "k"
      ],
      [
        "Ġde",
        "fine"
      ],
      [
        "Ġha",
        "ving"
      ],
      [
        "Ġele",
        "ment"
      ],
      [
        "è",
        "Ńī"
      ],
      [
        "Ġp",
        "ath"
      ],
      [
        "Ġar",
        "ith"
      ],
      [
        "3",
        "0"
      ],
      [
        "Ġma",
        "ke"
      ],
      [
        "Ġden",
        "ot"
      ],
      [
        "Ġkn",
        "ow"
      ],
      [
        "r",
        "y"
      ],
      [
        "rat",
        "eg"
      ],
      [
        "Ġcond",
        "ition"
      ],
      [
        "equ",
        "iv"
      ],
      [
        "ä¸Ģ",
        "åĢĭ"
      ],
      [
        "1",
        "4"
      ],
      [
        "k",
        "ot"
      ],
      [
        "Ñĥ",
        "Ð³"
      ],
      [
        "Ġcu",
        "b"
      ],
      [
        "Ġtouch",
        "es"
      ],
      [
        "Ã",
        "¤"
      ],
      [
        "Ġdiffer",
        "ence"
      ],
      [
        "ĠÐº",
        "Ð¾"
      ],
      [
        "c",
        "ted"
      ],
      [
        "om",
        "e"
      ],
      [
        "ĠA",
        "D"
      ],
      [
        "ĠA",
        "l"
      ],
      [
        "Ġsequ",
        "ences"
      ],
      [
        "Ġarbit",
        "rary"
      ],
      [
        "g",
        "cd"
      ],
      [
        "w",
        "n"
      ],
      [
        "Ġw",
        "rite"
      ],
      [
        "Ġcons",
        "ists"
      ],
      [
        "ĠÐ±",
        "Ð°"
      ],
      [
        "Ġarith",
        "metic"
      ],
      [
        "Ġs",
        "ay"
      ],
      [
        "Ġes",
        "te"
      ],
      [
        "pe",
        "z"
      ],
      [
        "Ġgra",
        "ph"
      ],
      [
        "Ġref",
        "lection"
      ],
      [
        "ĠÅŁ",
        "i"
      ],
      [
        "j",
        "ec"
      ],
      [
        "at",
        "o"
      ],
      [
        "Ġc",
        "ities"
      ],
      [
        "ĠA",
        "s"
      ],
      [
        "circ",
        "les"
      ],
      [
        "sum",
        "e"
      ],
      [
        "Ã¢",
        "ngulo"
      ],
      [
        "-",
        "\\"
      ],
      [
        "W",
        "hat"
      ],
      [
        "le",
        "d"
      ],
      [
        "Ġfo",
        "ot"
      ],
      [
        "}=",
        "\\"
      ],
      [
        ",",
        "\\"
      ],
      [
        "{",
        "("
      ],
      [
        "Ñ",
        "İ"
      ],
      [
        "Ġ",
        "enter"
      ],
      [
        "Ġp",
        "r"
      ],
      [
        "Ġf",
        "ive"
      ],
      [
        "ra",
        "do"
      ],
      [
        "1",
        "9"
      ],
      [
        "Ġnon",
        "negative"
      ],
      [
        "Ġrema",
        "in"
      ],
      [
        "Ġh",
        "er"
      ],
      [
        "Ġtri",
        "ples"
      ],
      [
        "Ġqu",
        "al"
      ],
      [
        "Ġz",
        "ero"
      ],
      [
        "ĠQ",
        "ual"
      ],
      [
        "ĠZah",
        "len"
      ],
      [
        "Ġfix",
        "ed"
      ],
      [
        "}",
        "_"
      ],
      [
        "Ġt",
        "els"
      ],
      [
        "ing",
        "s"
      ],
      [
        "Ġcons",
        "ist"
      ],
      [
        "el",
        "ta"
      ],
      [
        "Ġmo",
        "do"
      ],
      [
        "emp",
        "ty"
      ],
      [
        "Ġto",
        "ut"
      ],
      [
        "Ġdo",
        "is"
      ],
      [
        "Ġpre",
        "m"
      ],
      [
        "pri",
        "me"
      ],
      [
        "Ġfriend",
        "s"
      ],
      [
        "]",
        "{"
      ],
      [
        "è",
        "¶"
      ],
      [
        "Ġs",
        "a"
      ],
      [
        "re",
        "n"
      ],
      [
        "Ġw",
        "or"
      ],
      [
        "Ġto",
        "us"
      ],
      [
        "Ð°",
        "Ð½"
      ],
      [
        "il",
        "ar"
      ],
      [
        "Ð»",
        "Ðµ"
      ],
      [
        "ĠtriÃ¡",
        "ngulo"
      ],
      [
        "B",
        "P"
      ],
      [
        "D",
        "A"
      ],
      [
        "o",
        "res"
      ],
      [
        "ĠT",
        "h"
      ],
      [
        "ĠÑ",
        "ħ"
      ],
      [
        "ative",
        "ly"
      ],
      [
        "ä»",
        "¤"
      ],
      [
        "Ġconst",
        "ru"
      ],
      [
        "Ó",
        "©"
      ],
      [
        "ed",
        "e"
      ],
      [
        "ĠÑĩ",
        "Ð¸Ñģ"
      ],
      [
        "k",
        "ing"
      ],
      [
        "l",
        "ich"
      ],
      [
        "Ġ",
        "..."
      ],
      [
        "ti",
        "ce"
      ],
      [
        "Ġy",
        "our"
      ],
      [
        "Ġst",
        "rateg"
      ],
      [
        "Ġenti",
        "ers"
      ],
      [
        "Ġa",
        "bo"
      ],
      [
        "Ġto",
        "Äį"
      ],
      [
        "ion",
        "e"
      ],
      [
        "Ð²",
        "Ðµ"
      ],
      [
        "T",
        "wo"
      ],
      [
        "Ġis",
        "t"
      ],
      [
        "Ġse",
        "le"
      ],
      [
        "Ġsi",
        "x"
      ],
      [
        "Ġh",
        "al"
      ],
      [
        "Ġres",
        "ult"
      ],
      [
        "ĠM",
        "ontrer"
      ],
      [
        "201",
        "6"
      ],
      [
        "Ġrema",
        "ind"
      ],
      [
        "Ġaltitud",
        "e"
      ],
      [
        "2",
        "4"
      ],
      [
        "on",
        "o"
      ],
      [
        "Ġl",
        "ados"
      ],
      [
        "am",
        "ent"
      ],
      [
        "Ġcontain",
        "ing"
      ],
      [
        "Ġ&",
        "="
      ],
      [
        "i",
        "ge"
      ],
      [
        "en",
        "do"
      ],
      [
        "Ġr",
        "at"
      ],
      [
        "Ġne",
        "w"
      ],
      [
        "un",
        "g"
      ],
      [
        "ĠB",
        "e"
      ],
      [
        "ct",
        "ly"
      ],
      [
        "ĠÐ¾",
        "Ð´"
      ],
      [
        "Ġallow",
        "ed"
      ],
      [
        "Ġv",
        "Ã©"
      ],
      [
        "ol",
        "i"
      ],
      [
        "ic",
        "a"
      ],
      [
        "Ġexis",
        "te"
      ],
      [
        "Ġbox",
        "es"
      ],
      [
        "Ġdenot",
        "es"
      ],
      [
        "B",
        "A"
      ],
      [
        "i",
        "p"
      ],
      [
        "t",
        "ing"
      ],
      [
        "in",
        "a"
      ],
      [
        "re",
        "i"
      ],
      [
        "ĠA",
        "lice"
      ],
      [
        "ĠD",
        "o"
      ],
      [
        "Ãª",
        "n"
      ],
      [
        "sig",
        "ma"
      ],
      [
        "Ðº",
        "Ð¸"
      ],
      [
        "Ġinc",
        "l"
      ],
      [
        "Ġtra",
        "pez"
      ],
      [
        "äº",
        "¤"
      ],
      [
        "c",
        "u"
      ],
      [
        "Ġre",
        "pl"
      ],
      [
        "Ġconc",
        "urrent"
      ],
      [
        "Ġobtain",
        "ed"
      ],
      [
        "Ġconn",
        "ected"
      ],
      [
        "kot",
        "ni"
      ],
      [
        "]",
        "$."
      ],
      [
        "Ġp",
        "on"
      ],
      [
        "Ġperim",
        "eter"
      ],
      [
        "Ġs",
        "er"
      ],
      [
        "il",
        "d"
      ],
      [
        "Ġst",
        "ri"
      ],
      [
        "ĠÑĩ",
        "ÑĤÐ¾"
      ],
      [
        "Ġparalle",
        "logram"
      ],
      [
        "un",
        "gh"
      ],
      [
        "ä½",
        "¿"
      ],
      [
        "Ġexpres",
        "sion"
      ],
      [
        "m",
        "en"
      ],
      [
        "ec",
        "k"
      ],
      [
        "Ġ3",
        "0"
      ],
      [
        "reas",
        "ing"
      ],
      [
        "Ġp",
        "ic"
      ],
      [
        "ÑĢ",
        "Ñĥ"
      ],
      [
        "ĠÑģ",
        "Ðµ"
      ],
      [
        "Ġste",
        "p"
      ],
      [
        "å¾",
        "Ĺ"
      ],
      [
        "ĠÐ·",
        "Ð°"
      ],
      [
        "c",
        "ent"
      ],
      [
        "Ġ",
        "ri"
      ],
      [
        "Ġc",
        "all"
      ],
      [
        "ti",
        "l"
      ],
      [
        "Ġ1",
        "8"
      ],
      [
        "Ġ2",
        "5"
      ],
      [
        "Ġg",
        "an"
      ],
      [
        "Ġpro",
        "g"
      ],
      [
        "Ġquad",
        "rat"
      ],
      [
        "Ġrel",
        "atively"
      ],
      [
        "alc",
        "ul"
      ],
      [
        "Ġdeg",
        "ree"
      ],
      [
        "é",
        "Ľ"
      ],
      [
        "Ġd",
        "as"
      ],
      [
        "Ġw",
        "ere"
      ],
      [
        "ĠÐ",
        "µ"
      ],
      [
        "ma",
        "x"
      ],
      [
        "çĽ",
        "´"
      ],
      [
        "Ġbel",
        "ong"
      ],
      [
        "o",
        "ut"
      ],
      [
        "y",
        "m"
      ],
      [
        "Ġo",
        "cc"
      ],
      [
        "is",
        "h"
      ],
      [
        "Ġin",
        "d"
      ],
      [
        "ng",
        "ulos"
      ],
      [
        "Ġmo",
        "d"
      ],
      [
        "202",
        "3"
      ],
      [
        "Ġmed",
        "ian"
      ],
      [
        "6",
        "0"
      ],
      [
        "b",
        "inom"
      ],
      [
        "}",
        "}+\\"
      ],
      [
        "$.",
        ")"
      ],
      [
        "ri",
        "z"
      ],
      [
        "Ġor",
        "d"
      ],
      [
        "Ġst",
        "ra"
      ],
      [
        "Ġr",
        "Ã©"
      ],
      [
        "Ġplac",
        "e"
      ],
      [
        "ys",
        "tem"
      ],
      [
        "Ġcomple",
        "x"
      ],
      [
        "è©",
        "¦"
      ],
      [
        "Ã",
        "µ"
      ],
      [
        "Ġt",
        "er"
      ],
      [
        "Ġhal",
        "f"
      ],
      [
        "æ",
        "İ"
      ],
      [
        "Ġ",
        "Ñĥ"
      ],
      [
        "Ġl",
        "ong"
      ],
      [
        "ad",
        "as"
      ],
      [
        "ĠA",
        "fter"
      ],
      [
        "ph",
        "i"
      ],
      [
        "Ġpiec",
        "es"
      ],
      [
        "è§Ĵ",
        "å½¢"
      ],
      [
        "1",
        "8"
      ],
      [
        "e",
        "k"
      ],
      [
        "100",
        "0"
      ],
      [
        "ĠPoin",
        "t"
      ],
      [
        "Ġs",
        "ystem"
      ],
      [
        "Ð²",
        "Ð¾"
      ],
      [
        "Ġequation",
        "s"
      ],
      [
        "Ġpiec",
        "e"
      ],
      [
        "edro",
        "n"
      ],
      [
        "C",
        "B"
      ],
      [
        "i",
        "ent"
      ],
      [
        "ĠÐ",
        "»"
      ],
      [
        "Ġparti",
        "cip"
      ],
      [
        "ĠPoin",
        "ts"
      ],
      [
        "ä½¿",
        "å¾Ĺ"
      ],
      [
        "Ãµ",
        "es"
      ],
      [
        "c",
        "entre"
      ],
      [
        "s",
        "a"
      ],
      [
        "Ġro",
        "und"
      ],
      [
        "em",
        "ent"
      ],
      [
        "}^{",
        "\\"
      ],
      [
        "Ġpun",
        "tos"
      ],
      [
        "Ġpositiv",
        "os"
      ],
      [
        "Ġfig",
        "ura"
      ],
      [
        "Ġemp",
        "ty"
      ],
      [
        "ä¸ī",
        "è§Ĵå½¢"
      ],
      [
        "4",
        "5"
      ],
      [
        "p",
        "re"
      ],
      [
        "Ġf",
        "rac"
      ],
      [
        "ir",
        "d"
      ],
      [
        "Ñģ",
        "Ñı"
      ],
      [
        "é",
        "Ģ"
      ],
      [
        "Ġv",
        "ari"
      ],
      [
        "Ġz",
        "a"
      ],
      [
        "alle",
        "n"
      ],
      [
        "Ġorder",
        "ed"
      ],
      [
        "Ġcont",
        "in"
      ],
      [
        "Ġstar",
        "ts"
      ],
      [
        "Ġremain",
        "ing"
      ],
      [
        "è¶",
        "³"
      ],
      [
        "Ġo",
        "g"
      ],
      [
        "an",
        "ds"
      ],
      [
        "Ġnum",
        "eri"
      ],
      [
        "Ġqu",
        "es"
      ],
      [
        "Ġequal",
        "s"
      ],
      [
        "Ġsom",
        "a"
      ],
      [
        "Ġwrit",
        "es"
      ],
      [
        "C",
        "F"
      ],
      [
        "Ġt",
        "ut"
      ],
      [
        "ar",
        "is"
      ],
      [
        "Ġrespec",
        "t"
      ],
      [
        "ab",
        "c"
      ],
      [
        "202",
        "2"
      ],
      [
        "Ġinter",
        "n"
      ],
      [
        "Ġcent",
        "ro"
      ],
      [
        "Ġstrateg",
        "y"
      ],
      [
        "1",
        "7"
      ],
      [
        "f",
        "ig"
      ],
      [
        "Ġt",
        "ien"
      ],
      [
        "Ġ1",
        "4"
      ],
      [
        "Ġlo",
        "c"
      ],
      [
        "g",
        "g"
      ],
      [
        "r",
        "al"
      ],
      [
        "Ã",
        "¶"
      ],
      [
        "Ġ",
        "æ"
      ],
      [
        "Ñģ",
        "Ðµ"
      ],
      [
        "Ġinter",
        "val"
      ],
      [
        "Ġpermut",
        "ation"
      ],
      [
        "Ġconsist",
        "ing"
      ],
      [
        "Ġp",
        "res"
      ],
      [
        "ve",
        "c"
      ],
      [
        "Ġv",
        "ers"
      ],
      [
        "Ġex",
        "t"
      ],
      [
        "ÑĤ",
        "Ð¸"
      ],
      [
        "Ġpri",
        "mes"
      ],
      [
        "ĠÑ",
        "Ĩ"
      ],
      [
        "Ġmax",
        "imal"
      ],
      [
        "ĠÐº",
        "Ð°"
      ],
      [
        "Ġmulti",
        "p"
      ],
      [
        "pos",
        "ed"
      ],
      [
        "Ġstra",
        "ight"
      ],
      [
        "Ġcircum",
        "circles"
      ],
      [
        "Ġ6",
        "0"
      ],
      [
        "C",
        "E"
      ],
      [
        "Ġf",
        "act"
      ],
      [
        "Ġcon",
        "j"
      ],
      [
        "ĠD",
        "em"
      ],
      [
        "Ġcircum",
        "s"
      ],
      [
        "Ġne",
        "xt"
      ],
      [
        "ĠÐ½",
        "Ðµ"
      ],
      [
        "Ġfig",
        "ure"
      ],
      [
        ")",
        "_{"
      ],
      [
        "o",
        "c"
      ],
      [
        "Ġd",
        "etermin"
      ],
      [
        "te",
        "ment"
      ],
      [
        "ĠÐ",
        "Ķ"
      ],
      [
        "Ġ*",
        "*"
      ],
      [
        "Ġpart",
        "ition"
      ],
      [
        "Ġdire",
        "ction"
      ],
      [
        "pm",
        "od"
      ],
      [
        "å",
        "®"
      ],
      [
        "on",
        "es"
      ],
      [
        "ĠE",
        "very"
      ],
      [
        "Ġpossi",
        "b"
      ],
      [
        "i",
        "Å¡Äį"
      ],
      [
        "m",
        "ente"
      ],
      [
        "o",
        "ri"
      ],
      [
        "Ġ",
        "ÑĢÐ°"
      ],
      [
        "Ġt",
        "el"
      ],
      [
        "Ġc",
        "if"
      ],
      [
        "Ġla",
        "b"
      ],
      [
        "Ð²",
        "Ð¸"
      ],
      [
        "Ġreg",
        "ion"
      ],
      [
        "Ġè",
        "Īĩ"
      ],
      [
        "Ġstart",
        "ing"
      ],
      [
        "Ġchess",
        "board"
      ],
      [
        "Ġrat",
        "io"
      ],
      [
        "\\",
        "%"
      ],
      [
        "Ġr",
        "ay"
      ],
      [
        "åħ",
        "©"
      ],
      [
        "æĪ",
        "Ĳ"
      ],
      [
        "Ġalg",
        "aris"
      ],
      [
        "Ġpon",
        "to"
      ],
      [
        "b",
        "ers"
      ],
      [
        "x",
        "is"
      ],
      [
        "Ġp",
        "ont"
      ],
      [
        "Ġf",
        "a"
      ],
      [
        "Ġf",
        "i"
      ],
      [
        "ĠÐ",
        "³"
      ],
      [
        "Ġform",
        "ed"
      ],
      [
        "Ġrow",
        "s"
      ],
      [
        "Ġus",
        "ing"
      ],
      [
        "ĠÑĤÐ¾",
        "Ñĩ"
      ],
      [
        "Ġori",
        "gin"
      ],
      [
        "Ġexce",
        "ed"
      ],
      [
        "Ġsu",
        "pp"
      ],
      [
        "Ð´",
        "Ð¸"
      ],
      [
        "ĠH",
        "e"
      ],
      [
        "Ġconst",
        "ant"
      ],
      [
        "Ġaltitud",
        "es"
      ],
      [
        "Ġnomb",
        "re"
      ],
      [
        "Ġpent",
        "agon"
      ],
      [
        "A",
        "H"
      ],
      [
        "b",
        "en"
      ],
      [
        "Ã",
        "ł"
      ],
      [
        "el",
        "d"
      ],
      [
        "201",
        "5"
      ],
      [
        "Ġest",
        "Ã¡"
      ],
      [
        "Ġau",
        "f"
      ],
      [
        "Ġwin",
        "ning"
      ],
      [
        "l",
        "s"
      ],
      [
        "»",
        "¿"
      ],
      [
        "Ġ",
        "id"
      ],
      [
        "Ġre",
        "mo"
      ],
      [
        "ĠC",
        "onsider"
      ],
      [
        "Ġco",
        "unt"
      ],
      [
        "Ġval",
        "or"
      ],
      [
        "P",
        "C"
      ],
      [
        "a",
        "u"
      ],
      [
        "Ġs",
        "ym"
      ],
      [
        "Ġd",
        "ans"
      ],
      [
        "Ġto",
        "urn"
      ],
      [
        "Ġcom",
        "o"
      ],
      [
        "m",
        "er"
      ],
      [
        "v",
        "ers"
      ],
      [
        "Ġt",
        "re"
      ],
      [
        "el",
        "f"
      ],
      [
        "ĠÑ",
        "ĺ"
      ],
      [
        "Ġsi",
        "ze"
      ],
      [
        "Ð¾Ð»",
        "ÑĮ"
      ],
      [
        "Ġm",
        "is"
      ],
      [
        "ĠÐ",
        "°"
      ],
      [
        "Ã©",
        "m"
      ],
      [
        "Ġdist",
        "rib"
      ],
      [
        "201",
        "0"
      ],
      [
        "Ġgre",
        "en"
      ],
      [
        "Ġmen",
        "or"
      ],
      [
        "ĠvÃ©",
        "r"
      ],
      [
        "Ġt",
        "ro"
      ],
      [
        "ro",
        "und"
      ],
      [
        "Ġn",
        "Ã£o"
      ],
      [
        "ang",
        "ular"
      ],
      [
        "Ġun",
        "til"
      ],
      [
        "201",
        "1"
      ],
      [
        "201",
        "2"
      ],
      [
        "Ãª",
        "s"
      ],
      [
        "Ġge",
        "he"
      ],
      [
        "Ġapp",
        "ear"
      ],
      [
        "Ġ:---",
        ":"
      ],
      [
        "»¿",
        "è¶³"
      ],
      [
        "2",
        "2"
      ],
      [
        "e",
        "ver"
      ],
      [
        "i",
        "Ã³n"
      ],
      [
        "v",
        "ar"
      ],
      [
        "Ġt",
        "et"
      ],
      [
        "Ġth",
        "ose"
      ],
      [
        "^{",
        "-"
      ],
      [
        "Ġfor",
        "ma"
      ],
      [
        "Ġco",
        "ver"
      ],
      [
        "ä¸",
        "į"
      ],
      [
        "Ġhol",
        "d"
      ],
      [
        "Ġenter",
        "os"
      ],
      [
        "Ġremaind",
        "er"
      ],
      [
        "9",
        "0"
      ],
      [
        "B",
        "M"
      ],
      [
        "k",
        "i"
      ],
      [
        "s",
        "ub"
      ],
      [
        "t",
        "ers"
      ],
      [
        "Ġp",
        "ut"
      ],
      [
        "Ã©",
        "s"
      ],
      [
        "Ġst",
        "ones"
      ],
      [
        "Ġso",
        "d"
      ],
      [
        "Ġig",
        "ual"
      ],
      [
        "D",
        "elta"
      ],
      [
        "Ġex",
        "tern"
      ],
      [
        "Ġch",
        "a"
      ],
      [
        "201",
        "7"
      ],
      [
        "Ð¼",
        "Ð°"
      ],
      [
        "Ġcl",
        "os"
      ],
      [
        "Ã",
        "¹"
      ],
      [
        "È",
        "Ļ"
      ],
      [
        "Ġsum",
        "s"
      ],
      [
        "Ġstud",
        "ent"
      ],
      [
        "a",
        "do"
      ],
      [
        "Ġd",
        "ay"
      ],
      [
        "Ġb",
        "u"
      ],
      [
        "ble",
        "s"
      ],
      [
        "Ġnum",
        "ere"
      ],
      [
        "un",
        "to"
      ],
      [
        "Ġg",
        "u"
      ],
      [
        "Ġpa",
        "per"
      ],
      [
        "Ġno",
        "te"
      ],
      [
        "Ġne",
        "ed"
      ],
      [
        "--",
        "--"
      ],
      [
        "sig",
        "n"
      ],
      [
        "t",
        "an"
      ],
      [
        "Ġc",
        "ity"
      ],
      [
        "Ġj",
        "um"
      ],
      [
        "Ġsh",
        "are"
      ],
      [
        "Ġ...",
        ","
      ],
      [
        "Ġtourn",
        "ament"
      ],
      [
        "b",
        "re"
      ],
      [
        "c",
        "ol"
      ],
      [
        "w",
        "ard"
      ],
      [
        "y",
        "ing"
      ],
      [
        "Ġt",
        "en"
      ],
      [
        "Ġs",
        "ing"
      ],
      [
        "Ġc",
        "ar"
      ],
      [
        "it",
        "te"
      ],
      [
        "Ġpositi",
        "f"
      ],
      [
        "ĠT",
        "wo"
      ],
      [
        "Ġta",
        "kes"
      ],
      [
        "Ġbis",
        "ec"
      ],
      [
        "Ġbisect",
        "ors"
      ],
      [
        "int",
        "ersec"
      ],
      [
        "æĺ",
        "İ"
      ],
      [
        "at",
        "a"
      ],
      [
        "ri",
        "e"
      ],
      [
        "Ġ1",
        "7"
      ],
      [
        "20",
        "20"
      ],
      [
        "Ġpro",
        "blem"
      ],
      [
        "ä¸",
        "Ĭ"
      ],
      [
        "Å£",
        "i"
      ],
      [
        "h",
        "edron"
      ],
      [
        "Ġs",
        "w"
      ],
      [
        "Ġre",
        "ach"
      ],
      [
        "ĠS",
        "oit"
      ],
      [
        "ver",
        "al"
      ],
      [
        "Ġst",
        "r"
      ],
      [
        "Ġ5",
        "0"
      ],
      [
        "A",
        "A"
      ],
      [
        "b",
        "ar"
      ],
      [
        "é",
        "ĥ½"
      ],
      [
        "Ġt",
        "w"
      ],
      [
        "Ġp",
        "as"
      ],
      [
        "Ð¾",
        "ÐºÐ°"
      ],
      [
        "Ġun",
        "o"
      ],
      [
        "Ġpl",
        "an"
      ],
      [
        "Ġpositiv",
        "o"
      ],
      [
        "Ġpl",
        "us"
      ],
      [
        "res",
        "p"
      ],
      [
        "ĠW",
        "hen"
      ],
      [
        "201",
        "9"
      ],
      [
        "Ð´",
        "Ð¾"
      ],
      [
        "Ġfollow",
        "s"
      ],
      [
        "D",
        "o"
      ],
      [
        "p",
        "et"
      ],
      [
        "é",
        "Ĥ"
      ],
      [
        "Ġs",
        "ta"
      ],
      [
        "Ġl",
        "ist"
      ],
      [
        "ion",
        "es"
      ],
      [
        "Ġcomp",
        "ute"
      ],
      [
        "Ġcor",
        "re"
      ],
      [
        "o",
        "id"
      ],
      [
        "Ġt",
        "em"
      ],
      [
        "Ġto",
        "p"
      ],
      [
        "Ġwh",
        "ile"
      ],
      [
        "il",
        "t"
      ],
      [
        "ä»",
        "¥"
      ],
      [
        "Ġrepresent",
        "ation"
      ],
      [
        "çĽ´",
        "ç·ļ"
      ],
      [
        "k",
        "el"
      ],
      [
        "Ġd",
        "ur"
      ],
      [
        "Ġro",
        "om"
      ],
      [
        "ÈĽ",
        "i"
      ],
      [
        "Ġfac",
        "es"
      ],
      [
        "h",
        "ich"
      ],
      [
        "at",
        "s"
      ],
      [
        "Ġc",
        "ross"
      ],
      [
        "Ġf",
        "il"
      ],
      [
        "Ġcon",
        "fig"
      ],
      [
        "ol",
        "ve"
      ],
      [
        "ĠL",
        "a"
      ],
      [
        "]",
        "$,"
      ],
      [
        "l",
        "ti"
      ],
      [
        "å",
        "ĩ"
      ],
      [
        "in",
        "h"
      ],
      [
        "Ġc",
        "ase"
      ],
      [
        "Ġ1",
        "9"
      ],
      [
        "Ġpro",
        "jec"
      ],
      [
        "Ġal",
        "tern"
      ],
      [
        "Ġro",
        "ot"
      ],
      [
        "201",
        "4"
      ],
      [
        "Äĥ",
        "r"
      ],
      [
        "Ġdel",
        "le"
      ],
      [
        "Ġcor",
        "ner"
      ],
      [
        "Ġcolumn",
        "s"
      ],
      [
        "__",
        "__"
      ],
      [
        "Ġpont",
        "os"
      ],
      [
        "ä",
        "¹"
      ],
      [
        "Ġ",
        "ir"
      ],
      [
        "re",
        "a"
      ],
      [
        "is",
        "it"
      ],
      [
        "Ġpo",
        "wer"
      ],
      [
        "am",
        "o"
      ],
      [
        "Ġg",
        "en"
      ],
      [
        "Ġbo",
        "und"
      ],
      [
        "Ġdist",
        "an"
      ],
      [
        "Ġsum",
        "a"
      ],
      [
        "åĲ",
        "Ī"
      ],
      [
        "Ġuni",
        "que"
      ],
      [
        "A",
        "O"
      ],
      [
        "Ġa",
        "o"
      ],
      [
        "Ġin",
        "de"
      ],
      [
        "Ġf",
        "ro"
      ],
      [
        "Ġm",
        "Ã¡"
      ],
      [
        "Ġde",
        "i"
      ],
      [
        "Ġz",
        "ij"
      ],
      [
        "Ġ4",
        "0"
      ],
      [
        "Ġtang",
        "ents"
      ],
      [
        "Ġcor",
        "resp"
      ],
      [
        "Ġget",
        "allen"
      ],
      [
        "Ġtr",
        "ue"
      ],
      [
        "Ġra",
        "z"
      ],
      [
        "Ġbel",
        "ow"
      ],
      [
        "Ãªn",
        "cia"
      ],
      [
        "Ġprog",
        "res"
      ],
      [
        "i",
        "or"
      ],
      [
        "o",
        "f"
      ],
      [
        "|",
        "="
      ],
      [
        "ĠC",
        "A"
      ],
      [
        "Ġfe",
        "et"
      ],
      [
        "Ġalgaris",
        "mos"
      ],
      [
        "A",
        "I"
      ],
      [
        "c",
        "l"
      ],
      [
        "w",
        "ay"
      ],
      [
        "å",
        "¿"
      ],
      [
        "at",
        "ing"
      ],
      [
        "Ġd",
        "om"
      ],
      [
        "un",
        "a"
      ],
      [
        "Ġde",
        "lla"
      ],
      [
        "ul",
        "ui"
      ],
      [
        "ic",
        "o"
      ],
      [
        "Ġk",
        "e"
      ],
      [
        "Ġen",
        "a"
      ],
      [
        "up",
        "les"
      ],
      [
        "201",
        "3"
      ],
      [
        "ou",
        "red"
      ],
      [
        "Ġtr",
        "Ãªs"
      ],
      [
        "amb",
        "da"
      ],
      [
        "C",
        "P"
      ],
      [
        "C",
        "ompute"
      ],
      [
        "e",
        "ige"
      ],
      [
        "p",
        "ro"
      ],
      [
        "en",
        "e"
      ],
      [
        "ts",
        "ide"
      ],
      [
        "ĠB",
        "D"
      ],
      [
        "Ġso",
        "it"
      ],
      [
        "oin",
        "t"
      ],
      [
        "Ġlarg",
        "er"
      ],
      [
        "ĠAC",
        "B"
      ],
      [
        "Ġste",
        "ps"
      ],
      [
        "å¤",
        "ĸ"
      ],
      [
        "Ġtrapez",
        "oid"
      ],
      [
        "c",
        "ts"
      ],
      [
        "u",
        "g"
      ],
      [
        "Ġ",
        "ÈĻ"
      ],
      [
        "Ġth",
        "ird"
      ],
      [
        "Ġbe",
        "gin"
      ],
      [
        "id",
        "a"
      ],
      [
        "Ġtri",
        "Ã¢ngulo"
      ],
      [
        "Ġwith",
        "out"
      ],
      [
        "Ġwh",
        "ether"
      ],
      [
        "ĠS",
        "i"
      ],
      [
        "Ġro",
        "t"
      ],
      [
        "ĠÐ±",
        "ÑĢÐ¾"
      ],
      [
        "Ġinc",
        "reasing"
      ],
      [
        "Ġrepl",
        "ac"
      ],
      [
        "ĠÑĺ",
        "Ðµ"
      ],
      [
        "A",
        "X"
      ],
      [
        "v",
        "i"
      ],
      [
        "or",
        "a"
      ],
      [
        "Ġre",
        "ce"
      ],
      [
        "}$",
        "?"
      ],
      [
        "Ġas",
        "sign"
      ],
      [
        "ĠÐ´",
        "Ð°"
      ],
      [
        "Ġrectangle",
        "s"
      ],
      [
        "Ð¿",
        "Ð¸Ñģ"
      ],
      [
        "Ġsim",
        "ilar"
      ],
      [
        "tiv",
        "amente"
      ],
      [
        "éĤ",
        "Ĭ"
      ],
      [
        "A",
        "F"
      ],
      [
        "K",
        "L"
      ],
      [
        "l",
        "ambda"
      ],
      [
        "Ġb",
        "c"
      ],
      [
        "un",
        "der"
      ],
      [
        "Ġon",
        "to"
      ],
      [
        "Ð´",
        "Ð°"
      ],
      [
        "Ġrect",
        "angular"
      ],
      [
        "ĠAn",
        "d"
      ],
      [
        "Ġarrang",
        "ed"
      ],
      [
        "Ġvol",
        "um"
      ],
      [
        "Ġiniti",
        "al"
      ],
      [
        "Ġog",
        "ni"
      ],
      [
        "D",
        "etermin"
      ],
      [
        "P",
        "B"
      ],
      [
        "s",
        "ed"
      ],
      [
        "Ġa",
        "round"
      ],
      [
        "ch",
        "e"
      ],
      [
        "Ġre",
        "pe"
      ],
      [
        "Ġg",
        "ir"
      ],
      [
        "Ġcol",
        "oured"
      ],
      [
        "Ġquad",
        "rado"
      ],
      [
        "Ġcl",
        "ass"
      ],
      [
        "ĠÅ¡tevil",
        "o"
      ],
      [
        "Ġneigh",
        "b"
      ],
      [
        "Ġtet",
        "ra"
      ],
      [
        "p",
        "t"
      ],
      [
        "t",
        "re"
      ],
      [
        "Ã",
        "´"
      ],
      [
        "é",
        "Ŀ"
      ],
      [
        "gh",
        "ts"
      ],
      [
        "iv",
        "es"
      ],
      [
        "Ġlet",
        "ters"
      ],
      [
        "}-",
        "\\"
      ],
      [
        "ĠÑģ",
        "Ð¾"
      ],
      [
        "åĪ",
        "Ĺ"
      ],
      [
        "Ġsod",
        "ass"
      ],
      [
        "h",
        "ol"
      ],
      [
        "Ġare",
        "as"
      ],
      [
        "Ġr",
        "is"
      ],
      [
        "Ġtod",
        "as"
      ],
      [
        "Ġou",
        "tside"
      ],
      [
        "j",
        "o"
      ],
      [
        "il",
        "s"
      ],
      [
        "Ġcer",
        "tain"
      ],
      [
        "3",
        "3"
      ],
      [
        "w",
        "ij"
      ],
      [
        "}",
        "}\\"
      ],
      [
        "ĭ",
        "¥"
      ],
      [
        "Ĵ",
        "Į"
      ],
      [
        "Ġt",
        "y"
      ],
      [
        "_{",
        "\\"
      ],
      [
        "Ġto",
        "wn"
      ],
      [
        "Ġnum",
        "Äĥr"
      ],
      [
        "Ġcol",
        "lection"
      ],
      [
        "Ġsc",
        "ore"
      ],
      [
        "Ġlat",
        "tice"
      ],
      [
        "$",
        "),"
      ],
      [
        "f",
        "ore"
      ],
      [
        "Ġc",
        "ut"
      ],
      [
        "an",
        "to"
      ],
      [
        "Ġw",
        "a"
      ],
      [
        "Ġw",
        "ould"
      ],
      [
        "ent",
        "es"
      ],
      [
        "ut",
        "es"
      ],
      [
        "ĠE",
        "n"
      ],
      [
        "Ġmem",
        "bers"
      ],
      [
        "èŃī",
        "æĺİ"
      ],
      [
        "Ġb",
        "lock"
      ],
      [
        "Ġpositi",
        "e"
      ],
      [
        "Ġcon",
        "g"
      ],
      [
        "Ġk",
        "i"
      ],
      [
        "Ġch",
        "ild"
      ],
      [
        "Ġper",
        "form"
      ],
      [
        "Ð´",
        "Ðµ"
      ],
      [
        "ĠN",
        "o"
      ],
      [
        "Ġå",
        "ħ"
      ],
      [
        "æİ",
        "¥"
      ],
      [
        "N",
        "ote"
      ],
      [
        "c",
        "on"
      ],
      [
        "d",
        "i"
      ],
      [
        "p",
        "a"
      ],
      [
        "æ",
        "±"
      ],
      [
        "it",
        "o"
      ],
      [
        "Ġ2",
        "4"
      ],
      [
        "Ġv",
        "ale"
      ],
      [
        "Ġse",
        "veral"
      ],
      [
        "Ġnumber",
        "ed"
      ],
      [
        "Ġmid",
        "d"
      ],
      [
        "Ġcircums",
        "cribed"
      ],
      [
        "Ġcorresp",
        "ond"
      ],
      [
        "2",
        "1"
      ],
      [
        "F",
        "ie"
      ],
      [
        "ch",
        "es"
      ],
      [
        "Ġst",
        "ric"
      ],
      [
        "Ġcu",
        "ad"
      ],
      [
        "ä»",
        "»"
      ],
      [
        "Ġteam",
        "s"
      ],
      [
        "\\%",
        "$"
      ],
      [
        "Ġsing",
        "le"
      ],
      [
        "Ġstric",
        "tement"
      ],
      [
        "Ġa",
        "mo"
      ],
      [
        "Ġs",
        "pe"
      ],
      [
        "Ġc",
        "alcul"
      ],
      [
        "Ġw",
        "al"
      ],
      [
        "Ġbe",
        "en"
      ],
      [
        "00",
        "0"
      ],
      [
        "Ġco",
        "uld"
      ],
      [
        "att",
        "er"
      ],
      [
        "202",
        "1"
      ],
      [
        "Ġsolu",
        "tion"
      ],
      [
        "Ġcoordin",
        "ate"
      ],
      [
        "1",
        "99"
      ],
      [
        "2",
        "3"
      ],
      [
        "a",
        "Ã§Ã£o"
      ],
      [
        "j",
        "n"
      ],
      [
        "r",
        "as"
      ],
      [
        "Ġ",
        "Äį"
      ],
      [
        "Ġ",
        "ä½¿å¾Ĺ"
      ],
      [
        "an",
        "a"
      ],
      [
        "Ġb",
        "ot"
      ],
      [
        "ve",
        "d"
      ],
      [
        "Ġcirc",
        "ons"
      ],
      [
        "ĠD",
        "rei"
      ],
      [
        "Ġcan",
        "d"
      ],
      [
        "Ġpa",
        "in"
      ],
      [
        "202",
        "4"
      ],
      [
        "Å¾",
        "i"
      ],
      [
        "ĠZah",
        "l"
      ],
      [
        "Ġho",
        "riz"
      ],
      [
        "go",
        "od"
      ],
      [
        "ungh",
        "i"
      ],
      [
        "Ġprogres",
        "sion"
      ],
      [
        "Ġcircons",
        "crit"
      ],
      [
        "om",
        "et"
      ],
      [
        "Ġcon",
        "ti"
      ],
      [
        "Ġco",
        "un"
      ],
      [
        "ant",
        "os"
      ],
      [
        "Ġnon",
        "zero"
      ],
      [
        "io",
        "us"
      ],
      [
        "ĠÐ´",
        "Ðµ"
      ],
      [
        "Ġconc",
        "yclic"
      ],
      [
        "Ġnomb",
        "res"
      ],
      [
        "feren",
        "cia"
      ],
      [
        "Ġconj",
        "unto"
      ],
      [
        "var",
        "phi"
      ],
      [
        ")",
        "-"
      ],
      [
        "Ñ",
        "ĳ"
      ],
      [
        "re",
        "is"
      ],
      [
        "Ġf",
        "ace"
      ],
      [
        "ti",
        "m"
      ],
      [
        "Ġv",
        "o"
      ],
      [
        "Ġtri",
        "kotni"
      ],
      [
        "Ġso",
        "bre"
      ],
      [
        "201",
        "8"
      ],
      [
        "Ġme",
        "as"
      ],
      [
        "Ġcu",
        "ts"
      ],
      [
        "}^",
        "+"
      ],
      [
        "}_{",
        ">"
      ],
      [
        "Ġdro",
        "ite"
      ],
      [
        "ĠÈĻ",
        "i"
      ],
      [
        "c",
        "ont"
      ],
      [
        "¯",
        "ı"
      ],
      [
        "å",
        "¯"
      ],
      [
        "at",
        "ro"
      ],
      [
        "Ġc",
        "am"
      ],
      [
        "Ġin",
        "st"
      ],
      [
        "Ð¼",
        "Ðµ"
      ],
      [
        "Ġpre",
        "v"
      ],
      [
        "Ġ100",
        "0"
      ],
      [
        "Ġcenter",
        "ed"
      ],
      [
        "åĪ",
        "¥"
      ],
      [
        "ÑĨ",
        "Ð¸"
      ],
      [
        "B",
        "F"
      ],
      [
        "ti",
        "es"
      ],
      [
        "ĠA",
        "r"
      ],
      [
        "rou",
        "ver"
      ],
      [
        "ĠÐĶ",
        "Ð¾ÐºÐ°"
      ],
      [
        "'",
        "t"
      ],
      [
        "b",
        "f"
      ],
      [
        "m",
        "ed"
      ],
      [
        "r",
        "ad"
      ],
      [
        "ti",
        "ces"
      ],
      [
        "th",
        "eta"
      ],
      [
        "Ġsi",
        "a"
      ],
      [
        "Ġsegment",
        "o"
      ],
      [
        "Ñĩ",
        "Ðµ"
      ],
      [
        "åħ",
        "¶"
      ],
      [
        "Ġshow",
        "n"
      ],
      [
        "Ġcong",
        "ru"
      ],
      [
        "e",
        "z"
      ],
      [
        "f",
        "el"
      ],
      [
        "p",
        "o"
      ],
      [
        "}",
        "<"
      ],
      [
        "Ġof",
        "f"
      ],
      [
        "Ġf",
        "Ã¼r"
      ],
      [
        "Ðº",
        "Ñĥ"
      ],
      [
        "Ġnat",
        "Ã¼r"
      ],
      [
        "æľ",
        "Ģ"
      ],
      [
        "emp",
        "lo"
      ],
      [
        "Ġsim",
        "ult"
      ],
      [
        "éĽ",
        "Ĩ"
      ],
      [
        "Ġsupp",
        "ose"
      ],
      [
        "ĠnatÃ¼r",
        "lich"
      ],
      [
        "Ĩ",
        "åĪ¥"
      ],
      [
        "Ġc",
        "are"
      ],
      [
        "Ġw",
        "ants"
      ],
      [
        "un",
        "e"
      ],
      [
        "irc",
        "le"
      ],
      [
        "ion",
        "i"
      ],
      [
        "Ã§",
        "Ãµes"
      ],
      [
        "çĽ",
        "¸"
      ],
      [
        "Ġsym",
        "met"
      ],
      [
        "Ġt",
        "i"
      ],
      [
        "Ġd",
        "Ã©"
      ],
      [
        "Ġn",
        "i"
      ],
      [
        "Ġf",
        "ra"
      ],
      [
        "ir",
        "a"
      ],
      [
        "iti",
        "ve"
      ],
      [
        "}{",
        "("
      ],
      [
        "Ġtri",
        "unghi"
      ],
      [
        "math",
        "bf"
      ],
      [
        "ĠP",
        "unkt"
      ],
      [
        "ate",
        "ly"
      ],
      [
        ")=",
        "\\"
      ],
      [
        "200",
        "9"
      ],
      [
        "Ġsc",
        "ale"
      ],
      [
        "wij",
        "s"
      ],
      [
        "U",
        "n"
      ],
      [
        "c",
        "up"
      ],
      [
        "t",
        "he"
      ],
      [
        "Â",
        "¿"
      ],
      [
        "Ġf",
        "ol"
      ],
      [
        "ĠC",
        "an"
      ],
      [
        "Ġk",
        "ro"
      ],
      [
        "Ġch",
        "ange"
      ],
      [
        "em",
        "os"
      ],
      [
        "Ġpi",
        "Ã¹"
      ],
      [
        "Ñį",
        "Ð³"
      ],
      [
        "æĸ",
        "¹"
      ],
      [
        "'",
        "$."
      ],
      [
        "2",
        "7"
      ],
      [
        "Ġse",
        "i"
      ],
      [
        "Ðµ",
        "Ð»"
      ],
      [
        "Ġz",
        "we"
      ],
      [
        "ÃŃ",
        "vel"
      ],
      [
        "åĢ",
        "ĳ"
      ],
      [
        "Ġgroup",
        "s"
      ],
      [
        "Ġdu",
        "as"
      ],
      [
        "ous",
        "ly"
      ],
      [
        "Ġsit",
        "u"
      ],
      [
        "ostr",
        "are"
      ],
      [
        "Ġcub",
        "es"
      ],
      [
        "I",
        "s"
      ],
      [
        "Q",
        "u"
      ],
      [
        "o",
        "v"
      ],
      [
        "o",
        "ol"
      ],
      [
[...]
